{
  "version": "1.0",
  "truncation": null,
  "padding": null,
  "added_tokens": [
    {
      "id": 0,
      "content": "[UNK]",
      "single_word": false,
      "lstrip": false,
      "rstrip": false,
      "normalized": false,
      "special": true
    },
    {
      "id": 1,
      "content": "[PAD]",
      "single_word": false,
      "lstrip": false,
      "rstrip": false,
      "normalized": false,
      "special": true
    },
    {
      "id": 2,
      "content": "[BOS]",
      "single_word": false,
      "lstrip": false,
      "rstrip": false,
      "normalized": false,
      "special": true
    },
    {
      "id": 3,
      "content": "[EOS]",
      "single_word": false,
      "lstrip": false,
      "rstrip": false,
      "normalized": false,
      "special": true
    }
  ],
  "normalizer": null,
  "pre_tokenizer": {
    "type": "Whitespace"
  },
  "post_processor": null,
  "decoder": null,
  "model": {
    "type": "BPE",
    "dropout": null,
    "unk_token": "[UNK]",
    "continuing_subword_prefix": null,
    "end_of_word_suffix": null,
    "fuse_unk": false,
    "byte_fallback": false,
    "ignore_merges": false,
    "vocab": {
      "[UNK]": 0,
      "[PAD]": 1,
      "[BOS]": 2,
      "[EOS]": 3,
      "!": 4,
      "\"": 5,
      "#": 6,
      "$": 7,
      "%": 8,
      "&": 9,
      "'": 10,
      "(": 11,
      ")": 12,
      "*": 13,
      "+": 14,
      ",": 15,
      "-": 16,
      ".": 17,
      "/": 18,
      "0": 19,
      "1": 20,
      "2": 21,
      "3": 22,
      "4": 23,
      "5": 24,
      "6": 25,
      "7": 26,
      "8": 27,
      "9": 28,
      ":": 29,
      ";": 30,
      "<": 31,
      "=": 32,
      ">": 33,
      "?": 34,
      "@": 35,
      "A": 36,
      "B": 37,
      "C": 38,
      "D": 39,
      "E": 40,
      "F": 41,
      "G": 42,
      "H": 43,
      "I": 44,
      "J": 45,
      "K": 46,
      "L": 47,
      "M": 48,
      "N": 49,
      "O": 50,
      "P": 51,
      "Q": 52,
      "R": 53,
      "S": 54,
      "T": 55,
      "U": 56,
      "V": 57,
      "W": 58,
      "X": 59,
      "Y": 60,
      "Z": 61,
      "[": 62,
      "\\": 63,
      "]": 64,
      "^": 65,
      "_": 66,
      "`": 67,
      "a": 68,
      "b": 69,
      "c": 70,
      "d": 71,
      "e": 72,
      "f": 73,
      "g": 74,
      "h": 75,
      "i": 76,
      "j": 77,
      "k": 78,
      "l": 79,
      "m": 80,
      "n": 81,
      "o": 82,
      "p": 83,
      "q": 84,
      "r": 85,
      "s": 86,
      "t": 87,
      "u": 88,
      "v": 89,
      "w": 90,
      "x": 91,
      "y": 92,
      "z": 93,
      "{": 94,
      "|": 95,
      "}": 96,
      "~": 97,
      "": 98,
      "": 99,
      "¡": 100,
      "¢": 101,
      "£": 102,
      "¥": 103,
      "§": 104,
      "°": 105,
      "±": 106,
      "²": 107,
      "³": 108,
      "´": 109,
      "µ": 110,
      "·": 111,
      "º": 112,
      "¼": 113,
      "½": 114,
      "¿": 115,
      "Á": 116,
      "Ä": 117,
      "Å": 118,
      "Æ": 119,
      "Ç": 120,
      "É": 121,
      "Í": 122,
      "Î": 123,
      "Ñ": 124,
      "Ó": 125,
      "Ö": 126,
      "×": 127,
      "Ø": 128,
      "Ú": 129,
      "Ü": 130,
      "Þ": 131,
      "ß": 132,
      "à": 133,
      "á": 134,
      "â": 135,
      "ã": 136,
      "ä": 137,
      "å": 138,
      "æ": 139,
      "ç": 140,
      "è": 141,
      "é": 142,
      "ê": 143,
      "ë": 144,
      "ì": 145,
      "í": 146,
      "î": 147,
      "ï": 148,
      "ð": 149,
      "ñ": 150,
      "ò": 151,
      "ó": 152,
      "ô": 153,
      "ö": 154,
      "ø": 155,
      "ù": 156,
      "ú": 157,
      "û": 158,
      "ü": 159,
      "ý": 160,
      "þ": 161,
      "Ā": 162,
      "ā": 163,
      "ă": 164,
      "ą": 165,
      "ć": 166,
      "Č": 167,
      "č": 168,
      "ď": 169,
      "Đ": 170,
      "đ": 171,
      "Ē": 172,
      "ē": 173,
      "Ĕ": 174,
      "ĕ": 175,
      "ė": 176,
      "ę": 177,
      "ě": 178,
      "ğ": 179,
      "ħ": 180,
      "ī": 181,
      "ĭ": 182,
      "İ": 183,
      "ı": 184,
      "Ľ": 185,
      "Ł": 186,
      "ł": 187,
      "ń": 188,
      "ň": 189,
      "ŋ": 190,
      "Ō": 191,
      "ō": 192,
      "ő": 193,
      "œ": 194,
      "ř": 195,
      "Ś": 196,
      "ś": 197,
      "Ş": 198,
      "ş": 199,
      "Š": 200,
      "š": 201,
      "ţ": 202,
      "ũ": 203,
      "ū": 204,
      "ů": 205,
      "ű": 206,
      "ų": 207,
      "ź": 208,
      "Ż": 209,
      "ż": 210,
      "Ž": 211,
      "ž": 212,
      "ơ": 213,
      "ư": 214,
      "ǎ": 215,
      "ǔ": 216,
      "ǝ": 217,
      "ǣ": 218,
      "Ș": 219,
      "ș": 220,
      "ț": 221,
      "ȯ": 222,
      "ɐ": 223,
      "ɑ": 224,
      "ɒ": 225,
      "ɔ": 226,
      "ə": 227,
      "ɛ": 228,
      "ɜ": 229,
      "ɡ": 230,
      "ɢ": 231,
      "ɣ": 232,
      "ɪ": 233,
      "ɫ": 234,
      "ɬ": 235,
      "ɳ": 236,
      "ɽ": 237,
      "ɾ": 238,
      "ʀ": 239,
      "ʁ": 240,
      "ʂ": 241,
      "ʃ": 242,
      "ʊ": 243,
      "ʋ": 244,
      "ʒ": 245,
      "ʔ": 246,
      "ʕ": 247,
      "ʲ": 248,
      "ʷ": 249,
      "ʻ": 250,
      "ʼ": 251,
      "ʾ": 252,
      "ʿ": 253,
      "ˁ": 254,
      "ˈ": 255,
      "ˌ": 256,
      "ː": 257,
      "ˑ": 258,
      "ˤ": 259,
      "́": 260,
      "̃": 261,
      "̆": 262,
      "̍": 263,
      "̥": 264,
      "̯": 265,
      "͍": 266,
      "͡": 267,
      "Α": 268,
      "Β": 269,
      "Γ": 270,
      "Δ": 271,
      "Ε": 272,
      "Θ": 273,
      "Κ": 274,
      "Μ": 275,
      "Ν": 276,
      "Ξ": 277,
      "Ο": 278,
      "Π": 279,
      "Σ": 280,
      "Τ": 281,
      "Υ": 282,
      "Φ": 283,
      "Χ": 284,
      "Ψ": 285,
      "Ω": 286,
      "ά": 287,
      "έ": 288,
      "ή": 289,
      "ί": 290,
      "α": 291,
      "β": 292,
      "γ": 293,
      "δ": 294,
      "ε": 295,
      "η": 296,
      "θ": 297,
      "ι": 298,
      "κ": 299,
      "λ": 300,
      "μ": 301,
      "ν": 302,
      "ξ": 303,
      "ο": 304,
      "π": 305,
      "ρ": 306,
      "ς": 307,
      "σ": 308,
      "τ": 309,
      "υ": 310,
      "φ": 311,
      "χ": 312,
      "ψ": 313,
      "ω": 314,
      "ό": 315,
      "ύ": 316,
      "ώ": 317,
      "А": 318,
      "Б": 319,
      "В": 320,
      "Г": 321,
      "К": 322,
      "П": 323,
      "Р": 324,
      "С": 325,
      "У": 326,
      "Х": 327,
      "Я": 328,
      "а": 329,
      "в": 330,
      "г": 331,
      "д": 332,
      "е": 333,
      "ж": 334,
      "з": 335,
      "и": 336,
      "й": 337,
      "к": 338,
      "л": 339,
      "м": 340,
      "н": 341,
      "о": 342,
      "п": 343,
      "р": 344,
      "с": 345,
      "т": 346,
      "у": 347,
      "х": 348,
      "ц": 349,
      "ш": 350,
      "ъ": 351,
      "ы": 352,
      "ь": 353,
      "ю": 354,
      "я": 355,
      "є": 356,
      "֤": 357,
      "֫": 358,
      "ְ": 359,
      "ֱ": 360,
      "ֲ": 361,
      "ֳ": 362,
      "ִ": 363,
      "ֵ": 364,
      "ֶ": 365,
      "ַ": 366,
      "ָ": 367,
      "ֹ": 368,
      "ֻ": 369,
      "ּ": 370,
      "ׁ": 371,
      "ׂ": 372,
      "א": 373,
      "ב": 374,
      "ג": 375,
      "ד": 376,
      "ה": 377,
      "ו": 378,
      "ז": 379,
      "ח": 380,
      "ט": 381,
      "י": 382,
      "כ": 383,
      "ל": 384,
      "ם": 385,
      "מ": 386,
      "ן": 387,
      "נ": 388,
      "ס": 389,
      "ע": 390,
      "ף": 391,
      "פ": 392,
      "ץ": 393,
      "צ": 394,
      "ק": 395,
      "ר": 396,
      "ש": 397,
      "ת": 398,
      "ء": 399,
      "أ": 400,
      "إ": 401,
      "ئ": 402,
      "ا": 403,
      "ب": 404,
      "ة": 405,
      "ت": 406,
      "ث": 407,
      "ج": 408,
      "ح": 409,
      "خ": 410,
      "د": 411,
      "ذ": 412,
      "ر": 413,
      "س": 414,
      "ش": 415,
      "ص": 416,
      "ط": 417,
      "ع": 418,
      "ف": 419,
      "ق": 420,
      "ك": 421,
      "ل": 422,
      "م": 423,
      "ن": 424,
      "ه": 425,
      "و": 426,
      "ي": 427,
      "ی": 428,
      "ܐ": 429,
      "ܕ": 430,
      "ܗ": 431,
      "ܝ": 432,
      "ܠ": 433,
      "ܢ": 434,
      "ܬ": 435,
      "ܲ": 436,
      "ܵ": 437,
      "ं": 438,
      "अ": 439,
      "ई": 440,
      "क": 441,
      "ग": 442,
      "ण": 443,
      "त": 444,
      "द": 445,
      "न": 446,
      "प": 447,
      "फ": 448,
      "ब": 449,
      "म": 450,
      "य": 451,
      "र": 452,
      "ल": 453,
      "व": 454,
      "स": 455,
      "ह": 456,
      "़": 457,
      "ा": 458,
      "ि": 459,
      "ु": 460,
      "ू": 461,
      "े": 462,
      "ै": 463,
      "्": 464,
      "আ": 465,
      "ল": 466,
      "হ": 467,
      "া": 468,
      "্": 469,
      "ਅ": 470,
      "ਲ": 471,
      "ਹ": 472,
      "ਾ": 473,
      "ੁ": 474,
      "ੱ": 475,
      "അ": 476,
      "ള": 477,
      "ഹ": 478,
      "ാ": 479,
      "്": 480,
      "ก": 481,
      "ค": 482,
      "ง": 483,
      "ช": 484,
      "ซ": 485,
      "ญ": 486,
      "ฐ": 487,
      "ณ": 488,
      "ด": 489,
      "ต": 490,
      "น": 491,
      "บ": 492,
      "ป": 493,
      "พ": 494,
      "ภ": 495,
      "ม": 496,
      "ย": 497,
      "ร": 498,
      "ล": 499,
      "ว": 500,
      "ศ": 501,
      "ษ": 502,
      "ส": 503,
      "ห": 504,
      "อ": 505,
      "ฮ": 506,
      "ะ": 507,
      "ั": 508,
      "า": 509,
      "ิ": 510,
      "ี": 511,
      "ึ": 512,
      "เ": 513,
      "แ": 514,
      "ไ": 515,
      "็": 516,
      "่": 517,
      "้": 518,
      "๊": 519,
      "์": 520,
      "Ⴀ": 521,
      "Ⴂ": 522,
      "Ⴃ": 523,
      "Ⴈ": 524,
      "Ⴌ": 525,
      "Ⴕ": 526,
      "Ⴟ": 527,
      "ა": 528,
      "ბ": 529,
      "გ": 530,
      "დ": 531,
      "ე": 532,
      "ვ": 533,
      "ზ": 534,
      "თ": 535,
      "ი": 536,
      "კ": 537,
      "ლ": 538,
      "მ": 539,
      "ნ": 540,
      "ო": 541,
      "პ": 542,
      "ჟ": 543,
      "რ": 544,
      "ს": 545,
      "ტ": 546,
      "უ": 547,
      "ფ": 548,
      "ქ": 549,
      "ღ": 550,
      "ყ": 551,
      "შ": 552,
      "ჩ": 553,
      "ც": 554,
      "ძ": 555,
      "წ": 556,
      "ჭ": 557,
      "ხ": 558,
      "ჯ": 559,
      "ჰ": 560,
      "ჱ": 561,
      "ჲ": 562,
      "ჳ": 563,
      "ჴ": 564,
      "ჵ": 565,
      "ჶ": 566,
      "ჷ": 567,
      "ჸ": 568,
      "ჹ": 569,
      "ჺ": 570,
      "჻": 571,
      "ር": 572,
      "ስ": 573,
      "ቆ": 574,
      "ቈ": 575,
      "ብ": 576,
      "ቲ": 577,
      "ታ": 578,
      "ን": 579,
      "ኖ": 580,
      "አ": 581,
      "ዕ": 582,
      "ዘ": 583,
      "ያ": 584,
      "ᠠ": 585,
      "ᠣ": 586,
      "ᠨ": 587,
      "ᠪ": 588,
      "ᠮ": 589,
      "ᠯ": 590,
      "ᠰ": 591,
      "ᠴ": 592,
      "ᠵ": 593,
      "ᠸ": 594,
      "ᡝ": 595,
      "ᡠ": 596,
      "ᡥ": 597,
      "ᡨ": 598,
      "ᡳ": 599,
      "ᡴ": 600,
      "ᡵ": 601,
      "ᵻ": 602,
      "ḍ": 603,
      "ḏ": 604,
      "Ḥ": 605,
      "ḥ": 606,
      "Ḫ": 607,
      "ḷ": 608,
      "ṃ": 609,
      "ṅ": 610,
      "ṇ": 611,
      "ṛ": 612,
      "ṣ": 613,
      "ṭ": 614,
      "ṯ": 615,
      "ạ": 616,
      "ả": 617,
      "ấ": 618,
      "ầ": 619,
      "ậ": 620,
      "ắ": 621,
      "ễ": 622,
      "ệ": 623,
      "ị": 624,
      "ọ": 625,
      "ỏ": 626,
      "ỗ": 627,
      "ộ": 628,
      "ớ": 629,
      "ứ": 630,
      "ử": 631,
      "ữ": 632,
      "ỳ": 633,
      "ỹ": 634,
      "ἀ": 635,
      "ἁ": 636,
      "ἄ": 637,
      "Ἀ": 638,
      "ἐ": 639,
      "ἑ": 640,
      "ἦ": 641,
      "ἰ": 642,
      "ἴ": 643,
      "ἵ": 644,
      "ἶ": 645,
      "Ἰ": 646,
      "ὀ": 647,
      "ὁ": 648,
      "ὐ": 649,
      "ὑ": 650,
      "ὰ": 651,
      "ὶ": 652,
      "ὸ": 653,
      "ῆ": 654,
      "ῖ": 655,
      "ῦ": 656,
      "Ῥ": 657,
      "ῶ": 658,
      "​": 659,
      "‐": 660,
      "‑": 661,
      "–": 662,
      "—": 663,
      "―": 664,
      "‘": 665,
      "’": 666,
      "“": 667,
      "”": 668,
      "„": 669,
      "†": 670,
      "‡": 671,
      "•": 672,
      "…": 673,
      "′": 674,
      "″": 675,
      "⁄": 676,
      "₣": 677,
      "₤": 678,
      "€": 679,
      "₹": 680,
      "ℓ": 681,
      "⅓": 682,
      "⅔": 683,
      "↑": 684,
      "→": 685,
      "∈": 686,
      "∉": 687,
      "−": 688,
      "∗": 689,
      "√": 690,
      "∞": 691,
      "≠": 692,
      "≡": 693,
      "≤": 694,
      "≪": 695,
      "⊕": 696,
      "⋅": 697,
      "⋆": 698,
      "①": 699,
      "☉": 700,
      "☫": 701,
      "♀": 702,
      "♭": 703,
      "♯": 704,
      "⚳": 705,
      "、": 706,
      "。": 707,
      "〈": 708,
      "〉": 709,
      "〜": 710,
      "あ": 711,
      "い": 712,
      "う": 713,
      "お": 714,
      "か": 715,
      "が": 716,
      "き": 717,
      "ぎ": 718,
      "く": 719,
      "ぐ": 720,
      "け": 721,
      "こ": 722,
      "ご": 723,
      "さ": 724,
      "し": 725,
      "す": 726,
      "ず": 727,
      "ぜ": 728,
      "た": 729,
      "だ": 730,
      "ち": 731,
      "っ": 732,
      "つ": 733,
      "て": 734,
      "で": 735,
      "と": 736,
      "ど": 737,
      "な": 738,
      "に": 739,
      "の": 740,
      "は": 741,
      "ば": 742,
      "ひ": 743,
      "ふ": 744,
      "へ": 745,
      "ほ": 746,
      "ま": 747,
      "み": 748,
      "め": 749,
      "も": 750,
      "ゃ": 751,
      "ゆ": 752,
      "ょ": 753,
      "よ": 754,
      "ら": 755,
      "り": 756,
      "る": 757,
      "れ": 758,
      "わ": 759,
      "を": 760,
      "ん": 761,
      "ァ": 762,
      "ア": 763,
      "ィ": 764,
      "イ": 765,
      "ゥ": 766,
      "ェ": 767,
      "エ": 768,
      "ォ": 769,
      "オ": 770,
      "カ": 771,
      "ガ": 772,
      "キ": 773,
      "ク": 774,
      "グ": 775,
      "ゲ": 776,
      "コ": 777,
      "サ": 778,
      "シ": 779,
      "ジ": 780,
      "ス": 781,
      "ズ": 782,
      "セ": 783,
      "タ": 784,
      "ダ": 785,
      "チ": 786,
      "ッ": 787,
      "ツ": 788,
      "テ": 789,
      "デ": 790,
      "ト": 791,
      "ド": 792,
      "ナ": 793,
      "ニ": 794,
      "ネ": 795,
      "ノ": 796,
      "ハ": 797,
      "バ": 798,
      "パ": 799,
      "フ": 800,
      "ブ": 801,
      "プ": 802,
      "ヘ": 803,
      "ベ": 804,
      "ボ": 805,
      "マ": 806,
      "ミ": 807,
      "ム": 808,
      "モ": 809,
      "ャ": 810,
      "ュ": 811,
      "ョ": 812,
      "ヨ": 813,
      "ラ": 814,
      "リ": 815,
      "ル": 816,
      "レ": 817,
      "ロ": 818,
      "ワ": 819,
      "ン": 820,
      "ヴ": 821,
      "・": 822,
      "ー": 823,
      "一": 824,
      "七": 825,
      "三": 826,
      "下": 827,
      "世": 828,
      "丙": 829,
      "中": 830,
      "主": 831,
      "乃": 832,
      "之": 833,
      "乙": 834,
      "九": 835,
      "二": 836,
      "云": 837,
      "京": 838,
      "人": 839,
      "今": 840,
      "付": 841,
      "代": 842,
      "体": 843,
      "作": 844,
      "例": 845,
      "侍": 846,
      "侗": 847,
      "依": 848,
      "信": 849,
      "傳": 850,
      "儚": 851,
      "充": 852,
      "光": 853,
      "全": 854,
      "八": 855,
      "关": 856,
      "兵": 857,
      "其": 858,
      "具": 859,
      "典": 860,
      "円": 861,
      "再": 862,
      "冷": 863,
      "凤": 864,
      "処": 865,
      "凰": 866,
      "出": 867,
      "初": 868,
      "判": 869,
      "前": 870,
      "剛": 871,
      "劇": 872,
      "劉": 873,
      "動": 874,
      "化": 875,
      "北": 876,
      "十": 877,
      "华": 878,
      "厂": 879,
      "原": 880,
      "去": 881,
      "古": 882,
      "可": 883,
      "台": 884,
      "史": 885,
      "同": 886,
      "名": 887,
      "吕": 888,
      "君": 889,
      "吳": 890,
      "吴": 891,
      "周": 892,
      "命": 893,
      "和": 894,
      "咲": 895,
      "善": 896,
      "囁": 897,
      "囚": 898,
      "四": 899,
      "国": 900,
      "國": 901,
      "園": 902,
      "圣": 903,
      "在": 904,
      "坂": 905,
      "坤": 906,
      "型": 907,
      "城": 908,
      "堂": 909,
      "堤": 910,
      "場": 911,
      "塘": 912,
      "墙": 913,
      "士": 914,
      "夕": 915,
      "大": 916,
      "天": 917,
      "太": 918,
      "夫": 919,
      "女": 920,
      "妙": 921,
      "姉": 922,
      "姚": 923,
      "姫": 924,
      "子": 925,
      "孟": 926,
      "学": 927,
      "宇": 928,
      "守": 929,
      "安": 930,
      "宋": 931,
      "完": 932,
      "宗": 933,
      "宙": 934,
      "定": 935,
      "宝": 936,
      "宫": 937,
      "宮": 938,
      "宴": 939,
      "家": 940,
      "寝": 941,
      "寧": 942,
      "寺": 943,
      "小": 944,
      "少": 945,
      "尾": 946,
      "局": 947,
      "山": 948,
      "岳": 949,
      "川": 950,
      "州": 951,
      "巳": 952,
      "巴": 953,
      "市": 954,
      "師": 955,
      "平": 956,
      "幸": 957,
      "广": 958,
      "庆": 959,
      "府": 960,
      "度": 961,
      "座": 962,
      "廟": 963,
      "廬": 964,
      "建": 965,
      "式": 966,
      "張": 967,
      "彌": 968,
      "彦": 969,
      "彩": 970,
      "彼": 971,
      "後": 972,
      "御": 973,
      "德": 974,
      "応": 975,
      "思": 976,
      "恋": 977,
      "恩": 978,
      "恵": 979,
      "愚": 980,
      "愛": 981,
      "憑": 982,
      "憶": 983,
      "應": 984,
      "懷": 985,
      "成": 986,
      "战": 987,
      "戦": 988,
      "房": 989,
      "扈": 990,
      "打": 991,
      "技": 992,
      "抄": 993,
      "拉": 994,
      "拳": 995,
      "拾": 996,
      "挑": 997,
      "揺": 998,
      "攻": 999,
      "放": 1000,
      "政": 1001,
      "散": 1002,
      "斯": 1003,
      "方": 1004,
      "日": 1005,
      "旦": 1006,
      "旭": 1007,
      "旺": 1008,
      "昌": 1009,
      "明": 1010,
      "星": 1011,
      "春": 1012,
      "晋": 1013,
      "景": 1014,
      "曦": 1015,
      "月": 1016,
      "望": 1017,
      "未": 1018,
      "本": 1019,
      "李": 1020,
      "村": 1021,
      "杜": 1022,
      "束": 1023,
      "来": 1024,
      "東": 1025,
      "松": 1026,
      "林": 1027,
      "柱": 1028,
      "桜": 1029,
      "梶": 1030,
      "棘": 1031,
      "椎": 1032,
      "楊": 1033,
      "楚": 1034,
      "概": 1035,
      "榮": 1036,
      "橘": 1037,
      "機": 1038,
      "檻": 1039,
      "櫻": 1040,
      "欽": 1041,
      "歌": 1042,
      "正": 1043,
      "殻": 1044,
      "殿": 1045,
      "母": 1046,
      "毎": 1047,
      "水": 1048,
      "汉": 1049,
      "江": 1050,
      "沂": 1051,
      "沙": 1052,
      "河": 1053,
      "治": 1054,
      "泉": 1055,
      "泗": 1056,
      "波": 1057,
      "泣": 1058,
      "洛": 1059,
      "洪": 1060,
      "洲": 1061,
      "浦": 1062,
      "淹": 1063,
      "清": 1064,
      "湖": 1065,
      "湯": 1066,
      "溫": 1067,
      "滿": 1068,
      "漢": 1069,
      "澄": 1070,
      "澤": 1071,
      "瀛": 1072,
      "火": 1073,
      "灯": 1074,
      "灵": 1075,
      "灼": 1076,
      "為": 1077,
      "焼": 1078,
      "熊": 1079,
      "熱": 1080,
      "物": 1081,
      "狐": 1082,
      "狸": 1083,
      "玄": 1084,
      "王": 1085,
      "玩": 1086,
      "珂": 1087,
      "珙": 1088,
      "現": 1089,
      "球": 1090,
      "理": 1091,
      "琦": 1092,
      "琪": 1093,
      "琴": 1094,
      "瓊": 1095,
      "生": 1096,
      "田": 1097,
      "畢": 1098,
      "番": 1099,
      "異": 1100,
      "瘡": 1101,
      "白": 1102,
      "百": 1103,
      "皮": 1104,
      "真": 1105,
      "砲": 1106,
      "礮": 1107,
      "祈": 1108,
      "祖": 1109,
      "祚": 1110,
      "神": 1111,
      "祠": 1112,
      "祭": 1113,
      "禮": 1114,
      "秀": 1115,
      "秋": 1116,
      "秦": 1117,
      "移": 1118,
      "稚": 1119,
      "空": 1120,
      "窓": 1121,
      "立": 1122,
      "籠": 1123,
      "精": 1124,
      "約": 1125,
      "紫": 1126,
      "絵": 1127,
      "編": 1128,
      "織": 1129,
      "绮": 1130,
      "義": 1131,
      "羽": 1132,
      "翠": 1133,
      "者": 1134,
      "耕": 1135,
      "聖": 1136,
      "肖": 1137,
      "胡": 1138,
      "胤": 1139,
      "膀": 1140,
      "臂": 1141,
      "興": 1142,
      "良": 1143,
      "花": 1144,
      "芳": 1145,
      "芽": 1146,
      "苑": 1147,
      "若": 1148,
      "英": 1149,
      "草": 1150,
      "荊": 1151,
      "薩": 1152,
      "藕": 1153,
      "藤": 1154,
      "藥": 1155,
      "蘄": 1156,
      "蘇": 1157,
      "行": 1158,
      "衛": 1159,
      "裁": 1160,
      "西": 1161,
      "規": 1162,
      "覺": 1163,
      "观": 1164,
      "解": 1165,
      "記": 1166,
      "詠": 1167,
      "誓": 1168,
      "語": 1169,
      "誡": 1170,
      "誰": 1171,
      "謁": 1172,
      "謎": 1173,
      "许": 1174,
      "谭": 1175,
      "豪": 1176,
      "豫": 1177,
      "貴": 1178,
      "費": 1179,
      "贵": 1180,
      "赤": 1181,
      "越": 1182,
      "趙": 1183,
      "足": 1184,
      "跡": 1185,
      "跳": 1186,
      "転": 1187,
      "辛": 1188,
      "近": 1189,
      "送": 1190,
      "逆": 1191,
      "遇": 1192,
      "運": 1193,
      "過": 1194,
      "遠": 1195,
      "選": 1196,
      "遺": 1197,
      "還": 1198,
      "邦": 1199,
      "邱": 1200,
      "郁": 1201,
      "部": 1202,
      "郭": 1203,
      "都": 1204,
      "酈": 1205,
      "里": 1206,
      "野": 1207,
      "金": 1208,
      "銃": 1209,
      "鋼": 1210,
      "錄": 1211,
      "錡": 1212,
      "鍵": 1213,
      "鐵": 1214,
      "钱": 1215,
      "铁": 1216,
      "關": 1217,
      "闯": 1218,
      "防": 1219,
      "阿": 1220,
      "陈": 1221,
      "院": 1222,
      "陳": 1223,
      "陶": 1224,
      "陽": 1225,
      "隊": 1226,
      "階": 1227,
      "集": 1228,
      "雪": 1229,
      "雲": 1230,
      "霖": 1231,
      "霹": 1232,
      "靂": 1233,
      "韓": 1234,
      "願": 1235,
      "顯": 1236,
      "颜": 1237,
      "風": 1238,
      "颱": 1239,
      "风": 1240,
      "館": 1241,
      "首": 1242,
      "騎": 1243,
      "马": 1244,
      "高": 1245,
      "魂": 1246,
      "鳥": 1247,
      "黄": 1248,
      "龍": 1249,
      "대": 1250,
      "독": 1251,
      "라": 1252,
      "립": 1253,
      "병": 1254,
      "보": 1255,
      "부": 1256,
      "알": 1257,
      "연": 1258,
      "제": 1259,
      "ﷲ": 1260,
      "ﻋ": 1261,
      "﻿": 1262,
      "／": 1263,
      "３": 1264,
      "～": 1265,
      "�": 1266,
      "th": 1267,
      "in": 1268,
      "er": 1269,
      "an": 1270,
      "the": 1271,
      "on": 1272,
      "ed": 1273,
      "re": 1274,
      "at": 1275,
      "en": 1276,
      "or": 1277,
      "al": 1278,
      "st": 1279,
      "ar": 1280,
      "of": 1281,
      "and": 1282,
      "as": 1283,
      "es": 1284,
      "ing": 1285,
      "is": 1286,
      "to": 1287,
      "it": 1288,
      "ou": 1289,
      "ic": 1290,
      "ion": 1291,
      "le": 1292,
      "he": 1293,
      "ro": 1294,
      "ac": 1295,
      "il": 1296,
      "ent": 1297,
      "ad": 1298,
      "se": 1299,
      "am": 1300,
      "om": 1301,
      "ly": 1302,
      "be": 1303,
      "ch": 1304,
      "was": 1305,
      "for": 1306,
      "ur": 1307,
      "ve": 1308,
      "de": 1309,
      "ol": 1310,
      "The": 1311,
      "ir": 1312,
      "im": 1313,
      "-@": 1314,
      "@-@": 1315,
      "ig": 1316,
      "ver": 1317,
      "ow": 1318,
      "wh": 1319,
      "ter": 1320,
      "ith": 1321,
      "un": 1322,
      "ce": 1323,
      "ay": 1324,
      "ct": 1325,
      "ation": 1326,
      "con": 1327,
      "that": 1328,
      "with": 1329,
      "id": 1330,
      "ag": 1331,
      "us": 1332,
      "te": 1333,
      "by": 1334,
      "ot": 1335,
      "el": 1336,
      "ri": 1337,
      "ul": 1338,
      "ere": 1339,
      "ap": 1340,
      "res": 1341,
      "19": 1342,
      "et": 1343,
      "ain": 1344,
      "op": 1345,
      "um": 1346,
      "com": 1347,
      "rom": 1348,
      "pl": 1349,
      "ers": 1350,
      "ut": 1351,
      "his": 1352,
      "all": 1353,
      "ab": 1354,
      "oun": 1355,
      "00": 1356,
      "mo": 1357,
      "ist": 1358,
      "su": 1359,
      "are": 1360,
      "pro": 1361,
      "pe": 1362,
      "sh": 1363,
      "from": 1364,
      "In": 1365,
      "ne": 1366,
      "ate": 1367,
      "tr": 1368,
      "li": 1369,
      "po": 1370,
      "cl": 1371,
      "ther": 1372,
      "di": 1373,
      "art": 1374,
      "em": 1375,
      "ex": 1376,
      "igh": 1377,
      "est": 1378,
      "ich": 1379,
      "were": 1380,
      "ies": 1381,
      "ak": 1382,
      "oc": 1383,
      "ong": 1384,
      "ill": 1385,
      "ld": 1386,
      "ber": 1387,
      "ast": 1388,
      "ard": 1389,
      "per": 1390,
      "ant": 1391,
      "gh": 1392,
      "qu": 1393,
      "ity": 1394,
      "ated": 1395,
      "od": 1396,
      "ive": 1397,
      "ame": 1398,
      "ment": 1399,
      "ess": 1400,
      "man": 1401,
      "ish": 1402,
      "fe": 1403,
      "ort": 1404,
      "out": 1405,
      "als": 1406,
      "had": 1407,
      "ack": 1408,
      "ear": 1409,
      "one": 1410,
      "end": 1411,
      "our": 1412,
      "av": 1413,
      "tw": 1414,
      "which": 1415,
      "ough": 1416,
      "over": 1417,
      "ave": 1418,
      "ge": 1419,
      "not": 1420,
      "ord": 1421,
      "af": 1422,
      "gr": 1423,
      "ound": 1424,
      "iv": 1425,
      "ally": 1426,
      "but": 1427,
      "str": 1428,
      "ass": 1429,
      "act": 1430,
      "ip": 1431,
      "rit": 1432,
      "ine": 1433,
      "if": 1434,
      "ian": 1435,
      "its": 1436,
      "her": 1437,
      "ight": 1438,
      "vi": 1439,
      "ary": 1440,
      "Ch": 1441,
      "du": 1442,
      "pr": 1443,
      "ew": 1444,
      "ud": 1445,
      "lo": 1446,
      "fir": 1447,
      "200": 1448,
      "ep": 1449,
      "own": 1450,
      "ous": 1451,
      "up": 1452,
      "20": 1453,
      "ia": 1454,
      "au": 1455,
      "bo": 1456,
      "St": 1457,
      "ach": 1458,
      "aw": 1459,
      "ev": 1460,
      "der": 1461,
      "ore": 1462,
      "land": 1463,
      "ould": 1464,
      "sp": 1465,
      "ical": 1466,
      "their": 1467,
      "bl": 1468,
      "first": 1469,
      "si": 1470,
      "ction": 1471,
      "age": 1472,
      "sc": 1473,
      "ser": 1474,
      "wor": 1475,
      "ign": 1476,
      "form": 1477,
      "ition": 1478,
      "ke": 1479,
      "ll": 1480,
      "low": 1481,
      "18": 1482,
      "tim": 1483,
      "He": 1484,
      "ater": 1485,
      "ial": 1486,
      "also": 1487,
      "have": 1488,
      "comp": 1489,
      "att": 1490,
      "ure": 1491,
      "pt": 1492,
      "has": 1493,
      "int": 1494,
      "rec": 1495,
      "other": 1496,
      "port": 1497,
      "who": 1498,
      "pos": 1499,
      ".@": 1500,
      "@.@": 1501,
      "ome": 1502,
      "br": 1503,
      "play": 1504,
      "been": 1505,
      "part": 1506,
      "os": 1507,
      "ence": 1508,
      "cont": 1509,
      "ree": 1510,
      "pres": 1511,
      "ok": 1512,
      "two": 1513,
      "dis": 1514,
      "me": 1515,
      "ory": 1516,
      "uring": 1517,
      "ran": 1518,
      "gu": 1519,
      "ile": 1520,
      "off": 1521,
      "des": 1522,
      "this": 1523,
      "ell": 1524,
      "year": 1525,
      "ite": 1526,
      "ade": 1527,
      "ult": 1528,
      "they": 1529,
      "mer": 1530,
      "It": 1531,
      "Th": 1532,
      "cre": 1533,
      "201": 1534,
      ",@": 1535,
      "@,@": 1536,
      "fin": 1537,
      "after": 1538,
      "we": 1539,
      "cent": 1540,
      "ans": 1541,
      "ren": 1542,
      "og": 1543,
      "mon": 1544,
      "urn": 1545,
      "ved": 1546,
      "ations": 1547,
      "An": 1548,
      "incl": 1549,
      "ph": 1550,
      "no": 1551,
      "ice": 1552,
      "ff": 1553,
      "able": 1554,
      "ace": 1555,
      "pre": 1556,
      "ue": 1557,
      "ever": 1558,
      "spe": 1559,
      "iz": 1560,
      "ark": 1561,
      "Un": 1562,
      "work": 1563,
      "ings": 1564,
      "time": 1565,
      "vel": 1566,
      "co": 1567,
      "ra": 1568,
      "ric": 1569,
      "red": 1570,
      "ens": 1571,
      "ance": 1572,
      "ship": 1573,
      "inter": 1574,
      "into": 1575,
      "ions": 1576,
      "more": 1577,
      "ced": 1578,
      "she": 1579,
      "ount": 1580,
      "air": 1581,
      "would": 1582,
      "any": 1583,
      "ire": 1584,
      "most": 1585,
      "fl": 1586,
      "used": 1587,
      "him": 1588,
      "tem": 1589,
      "ces": 1590,
      "ath": 1591,
      "old": 1592,
      "cted": 1593,
      "amp": 1594,
      "Al": 1595,
      "ie": 1596,
      "ased": 1597,
      "ates": 1598,
      "bec": 1599,
      "ited": 1600,
      "Ar": 1601,
      "ason": 1602,
      "main": 1603,
      "fore": 1604,
      "ild": 1605,
      "ind": 1606,
      "cond": 1607,
      "bu": 1608,
      "ang": 1609,
      "ann": 1610,
      "ob": 1611,
      "ase": 1612,
      "vers": 1613,
      "ail": 1614,
      "vis": 1615,
      "way": 1616,
      "though": 1617,
      "ted": 1618,
      "rough": 1619,
      "new": 1620,
      "when": 1621,
      "ilm": 1622,
      "gen": 1623,
      "includ": 1624,
      "ts": 1625,
      "ick": 1626,
      "ake": 1627,
      "Au": 1628,
      "cess": 1629,
      "ss": 1630,
      "ors": 1631,
      "row": 1632,
      "ble": 1633,
      "ry": 1634,
      "ents": 1635,
      "gan": 1636,
      "them": 1637,
      "iss": 1638,
      "min": 1639,
      "col": 1640,
      "can": 1641,
      "ubl": 1642,
      "son": 1643,
      "arch": 1644,
      "ose": 1645,
      "ood": 1646,
      "reg": 1647,
      "ward": 1648,
      "les": 1649,
      "ton": 1650,
      "only": 1651,
      "een": 1652,
      "day": 1653,
      "during": 1654,
      "under": 1655,
      "ered": 1656,
      "than": 1657,
      "ret": 1658,
      "song": 1659,
      "nor": 1660,
      "game": 1661,
      "ten": 1662,
      "kn": 1663,
      "ele": 1664,
      "ide": 1665,
      "lar": 1666,
      "about": 1667,
      "ollow": 1668,
      "comm": 1669,
      "produ": 1670,
      "some": 1671,
      "En": 1672,
      "Wh": 1673,
      "New": 1674,
      "199": 1675,
      "ern": 1676,
      "film": 1677,
      "stru": 1678,
      "outh": 1679,
      "so": 1680,
      "ty": 1681,
      "ational": 1682,
      "char": 1683,
      "num": 1684,
      "writ": 1685,
      "while": 1686,
      "tween": 1687,
      "between": 1688,
      "sy": 1689,
      "season": 1690,
      "three": 1691,
      "ru": 1692,
      "oy": 1693,
      "ular": 1694,
      "through": 1695,
      "ef": 1696,
      "On": 1697,
      "spec": 1698,
      "where": 1699,
      "10": 1700,
      "ron": 1701,
      "again": 1702,
      "Com": 1703,
      "led": 1704,
      "later": 1705,
      "cons": 1706,
      "my": 1707,
      "ating": 1708,
      "Re": 1709,
      "ict": 1710,
      "ful": 1711,
      "rel": 1712,
      "rele": 1713,
      "record": 1714,
      "view": 1715,
      "ied": 1716,
      "ck": 1717,
      "Af": 1718,
      "aid": 1719,
      "made": 1720,
      "dr": 1721,
      "ics": 1722,
      "ust": 1723,
      "set": 1724,
      "sub": 1725,
      "000": 1726,
      "ames": 1727,
      "meric": 1728,
      "Americ": 1729,
      "high": 1730,
      "such": 1731,
      "do": 1732,
      "sing": 1733,
      "then": 1734,
      "ock": 1735,
      "med": 1736,
      "ished": 1737,
      "ane": 1738,
      "ma": 1739,
      "ury": 1740,
      "acter": 1741,
      "appe": 1742,
      "sel": 1743,
      "oh": 1744,
      "follow": 1745,
      "De": 1746,
      "je": 1747,
      "ari": 1748,
      "four": 1749,
      "Le": 1750,
      "cur": 1751,
      "call": 1752,
      "go": 1753,
      "At": 1754,
      "ific": 1755,
      "ins": 1756,
      "well": 1757,
      "bum": 1758,
      "This": 1759,
      "ative": 1760,
      "ual": 1761,
      "second": 1762,
      "there": 1763,
      "As": 1764,
      "16": 1765,
      "before": 1766,
      "publ": 1767,
      "back": 1768,
      "mus": 1769,
      "fer": 1770,
      "..": 1771,
      "years": 1772,
      "arri": 1773,
      "ily": 1774,
      "add": 1775,
      "appear": 1776,
      "cri": 1777,
      "iel": 1778,
      "17": 1779,
      "cr": 1780,
      "12": 1781,
      "ale": 1782,
      "sup": 1783,
      "ub": 1784,
      "being": 1785,
      "cap": 1786,
      "use": 1787,
      "15": 1788,
      "owever": 1789,
      "inn": 1790,
      "rop": 1791,
      "many": 1792,
      "hel": 1793,
      "ove": 1794,
      "ven": 1795,
      "long": 1796,
      "found": 1797,
      "par": 1798,
      "sur": 1799,
      "point": 1800,
      "ause": 1801,
      "side": 1802,
      "known": 1803,
      "number": 1804,
      "album": 1805,
      "reat": 1806,
      "Nor": 1807,
      "unt": 1808,
      "cho": 1809,
      "loc": 1810,
      "epis": 1811,
      "ince": 1812,
      "mber": 1813,
      "Sh": 1814,
      "like": 1815,
      "eng": 1816,
      "series": 1817,
      "ress": 1818,
      "velop": 1819,
      "ode": 1820,
      "ise": 1821,
      "mi": 1822,
      "olog": 1823,
      "Con": 1824,
      "ities": 1825,
      "198": 1826,
      "dire": 1827,
      "ident": 1828,
      "sever": 1829,
      "orn": 1830,
      "atch": 1831,
      "ments": 1832,
      "enn": 1833,
      "ft": 1834,
      "cept": 1835,
      "both": 1836,
      "ped": 1837,
      "team": 1838,
      "became": 1839,
      "character": 1840,
      "Eng": 1841,
      "ves": 1842,
      "igin": 1843,
      "Joh": 1844,
      "ost": 1845,
      "diff": 1846,
      "uary": 1847,
      "ond": 1848,
      "ash": 1849,
      "ese": 1850,
      "pop": 1851,
      "tain": 1852,
      "including": 1853,
      "urch": 1854,
      "ek": 1855,
      "oup": 1856,
      "ird": 1857,
      "John": 1858,
      "Be": 1859,
      "line": 1860,
      "against": 1861,
      "30": 1862,
      "down": 1863,
      "feat": 1864,
      "After": 1865,
      "United": 1866,
      "show": 1867,
      "dec": 1868,
      "Ro": 1869,
      "Wor": 1870,
      "Brit": 1871,
      "descri": 1872,
      "cer": 1873,
      "suc": 1874,
      "lead": 1875,
      "194": 1876,
      "ield": 1877,
      "mill": 1878,
      "ures": 1879,
      "ters": 1880,
      "contin": 1881,
      "develop": 1882,
      "bed": 1883,
      "west": 1884,
      "comple": 1885,
      "ci": 1886,
      "peri": 1887,
      "road": 1888,
      "ually": 1889,
      "mem": 1890,
      "ised": 1891,
      "hist": 1892,
      "oper": 1893,
      "pol": 1894,
      "hy": 1895,
      "origin": 1896,
      "war": 1897,
      "century": 1898,
      "II": 1899,
      "ject": 1900,
      "sm": 1901,
      "io": 1902,
      "She": 1903,
      "could": 1904,
      "did": 1905,
      "ball": 1906,
      "cy": 1907,
      "ms": 1908,
      "eral": 1909,
      "ross": 1910,
      "la": 1911,
      "episode": 1912,
      "cle": 1913,
      "several": 1914,
      "called": 1915,
      "stor": 1916,
      "Se": 1917,
      "near": 1918,
      "head": 1919,
      "leg": 1920,
      "uch": 1921,
      "ste": 1922,
      "may": 1923,
      "serv": 1924,
      "dist": 1925,
      "nam": 1926,
      "Br": 1927,
      "ived": 1928,
      "design": 1929,
      "Mar": 1930,
      "por": 1931,
      "tri": 1932,
      "said": 1933,
      "began": 1934,
      "sign": 1935,
      "state": 1936,
      "cover": 1937,
      "197": 1938,
      "early": 1939,
      "ended": 1940,
      "cord": 1941,
      "American": 1942,
      "une": 1943,
      "try": 1944,
      "met": 1945,
      "rece": 1946,
      "196": 1947,
      "present": 1948,
      "remain": 1949,
      "crit": 1950,
      "vid": 1951,
      "self": 1952,
      "ah": 1953,
      "vol": 1954,
      "14": 1955,
      "large": 1956,
      "ized": 1957,
      "bre": 1958,
      "lan": 1959,
      "For": 1960,
      "13": 1961,
      "along": 1962,
      "these": 1963,
      "az": 1964,
      "aking": 1965,
      "ley": 1966,
      "pers": 1967,
      "ars": 1968,
      "itt": 1969,
      "dam": 1970,
      "ople": 1971,
      "stem": 1972,
      "gg": 1973,
      "pass": 1974,
      "less": 1975,
      "run": 1976,
      "fam": 1977,
      "fect": 1978,
      "until": 1979,
      "success": 1980,
      "press": 1981,
      "tow": 1982,
      "ib": 1983,
      "men": 1984,
      "same": 1985,
      "ines": 1986,
      "Gr": 1987,
      "Car": 1988,
      "xt": 1989,
      "sim": 1990,
      "ious": 1991,
      "jor": 1992,
      "let": 1993,
      "return": 1994,
      "Is": 1995,
      "rist": 1996,
      "released": 1997,
      "val": 1998,
      "open": 1999,
      "each": 2000,
      "50": 2001,
      "ower": 2002,
      "dep": 2003,
      "plac": 2004,
      "Ger": 2005,
      "oot": 2006,
      "mil": 2007,
      "ca": 2008,
      "gust": 2009,
      "May": 2010,
      "city": 2011,
      "music": 2012,
      "position": 2013,
      "now": 2014,
      "chool": 2015,
      "build": 2016,
      "ouse": 2017,
      "km": 2018,
      "light": 2019,
      "grap": 2020,
      "ists": 2021,
      "because": 2022,
      "ather": 2023,
      "They": 2024,
      "come": 2025,
      "Col": 2026,
      "start": 2027,
      "War": 2028,
      "pon": 2029,
      "ink": 2030,
      "overn": 2031,
      "ank": 2032,
      "area": 2033,
      "oci": 2034,
      "offic": 2035,
      "fun": 2036,
      "read": 2037,
      "vent": 2038,
      "thern": 2039,
      "Sep": 2040,
      "national": 2041,
      "trans": 2042,
      "life": 2043,
      "people": 2044,
      "che": 2045,
      "British": 2046,
      "million": 2047,
      "Mc": 2048,
      "oth": 2049,
      "requ": 2050,
      "US": 2051,
      "sk": 2052,
      "coun": 2053,
      "around": 2054,
      "ext": 2055,
      "car": 2056,
      "ple": 2057,
      "ired": 2058,
      "north": 2059,
      "stral": 2060,
      "August": 2061,
      "ural": 2062,
      "Pl": 2063,
      "iver": 2064,
      "continu": 2065,
      "mark": 2066,
      "rote": 2067,
      "small": 2068,
      "11": 2069,
      "World": 2070,
      "six": 2071,
      "ctor": 2072,
      "vision": 2073,
      "ism": 2074,
      "formed": 2075,
      "east": 2076,
      "ured": 2077,
      "consid": 2078,
      "ivers": 2079,
      "very": 2080,
      "vide": 2081,
      "support": 2082,
      "tember": 2083,
      "ving": 2084,
      "September": 2085,
      "group": 2086,
      "bers": 2087,
      "following": 2088,
      "class": 2089,
      "However": 2090,
      "result": 2091,
      "get": 2092,
      "attack": 2093,
      "Eu": 2094,
      "ina": 2095,
      "Ju": 2096,
      "sol": 2097,
      "ask": 2098,
      "will": 2099,
      "Bl": 2100,
      "track": 2101,
      "top": 2102,
      "field": 2103,
      "dom": 2104,
      "five": 2105,
      "book": 2106,
      "Fe": 2107,
      "ime": 2108,
      "tal": 2109,
      "prom": 2110,
      "Austral": 2111,
      "ision": 2112,
      "allow": 2113,
      "care": 2114,
      "States": 2115,
      "ground": 2116,
      "ility": 2117,
      "rest": 2118,
      "aving": 2119,
      "ional": 2120,
      "North": 2121,
      "Wil": 2122,
      "atter": 2123,
      "aim": 2124,
      "West": 2125,
      "what": 2126,
      "partic": 2127,
      "contro": 2128,
      "organ": 2129,
      "stand": 2130,
      "species": 2131,
      "cour": 2132,
      "prote": 2133,
      "even": 2134,
      "since": 2135,
      "Her": 2136,
      "played": 2137,
      "inc": 2138,
      "ained": 2139,
      "cording": 2140,
      "ys": 2141,
      "ined": 2142,
      "ants": 2143,
      "0s": 2144,
      "ork": 2145,
      "public": 2146,
      "gun": 2147,
      "cut": 2148,
      "system": 2149,
      "25": 2150,
      "constru": 2151,
      "received": 2152,
      "ague": 2153,
      "reach": 2154,
      "miss": 2155,
      "sequ": 2156,
      "South": 2157,
      "Gu": 2158,
      "Oc": 2159,
      "major": 2160,
      "appro": 2161,
      "cast": 2162,
      "Jan": 2163,
      "June": 2164,
      "week": 2165,
      "ude": 2166,
      "govern": 2167,
      "took": 2168,
      "Man": 2169,
      "tit": 2170,
      "Ac": 2171,
      "name": 2172,
      "ains": 2173,
      "Fran": 2174,
      "just": 2175,
      "place": 2176,
      "lish": 2177,
      "ately": 2178,
      "incre": 2179,
      "ons": 2180,
      "report": 2181,
      "Par": 2182,
      "ling": 2183,
      "vari": 2184,
      "arm": 2185,
      "Apr": 2186,
      "April": 2187,
      "last": 2188,
      "def": 2189,
      "aged": 2190,
      "Cl": 2191,
      "south": 2192,
      "app": 2193,
      "Christ": 2194,
      "ody": 2195,
      "giv": 2196,
      "wards": 2197,
      "list": 2198,
      "count": 2199,
      "ilt": 2200,
      "posed": 2201,
      "ute": 2202,
      "power": 2203,
      "named": 2204,
      "ax": 2205,
      "differ": 2206,
      "band": 2207,
      "ature": 2208,
      "won": 2209,
      "ales": 2210,
      "Me": 2211,
      "camp": 2212,
      "ently": 2213,
      "liam": 2214,
      "moved": 2215,
      "York": 2216,
      "gre": 2217,
      "pri": 2218,
      "ships": 2219,
      "described": 2220,
      "water": 2221,
      "ages": 2222,
      "During": 2223,
      "wrote": 2224,
      "town": 2225,
      "Pr": 2226,
      "oman": 2227,
      "final": 2228,
      "batt": 2229,
      "single": 2230,
      "ae": 2231,
      "ham": 2232,
      "tober": 2233,
      "ets": 2234,
      "October": 2235,
      "ically": 2236,
      "Sc": 2237,
      "late": 2238,
      "195": 2239,
      "Mon": 2240,
      "vious": 2241,
      "aft": 2242,
      "hand": 2243,
      "Can": 2244,
      "gy": 2245,
      "ium": 2246,
      "death": 2247,
      "mp": 2248,
      "order": 2249,
      "due": 2250,
      "hum": 2251,
      "jo": 2252,
      "world": 2253,
      "fur": 2254,
      "ger": 2255,
      "child": 2256,
      "much": 2257,
      "Indi": 2258,
      "star": 2259,
      "ris": 2260,
      "King": 2261,
      "based": 2262,
      "All": 2263,
      "another": 2264,
      "July": 2265,
      "gener": 2266,
      "short": 2267,
      "right": 2268,
      "expl": 2269,
      "Euro": 2270,
      "left": 2271,
      "ting": 2272,
      "beli": 2273,
      "real": 2274,
      "ital": 2275,
      "hal": 2276,
      "built": 2277,
      "family": 2278,
      "pect": 2279,
      "ilar": 2280,
      "ix": 2281,
      "idge": 2282,
      "rown": 2283,
      "chan": 2284,
      "event": 2285,
      "tempt": 2286,
      "story": 2287,
      "When": 2288,
      "ness": 2289,
      "193": 2290,
      "German": 2291,
      "ats": 2292,
      "ls": 2293,
      "ored": 2294,
      "school": 2295,
      "ards": 2296,
      "ians": 2297,
      "January": 2298,
      "den": 2299,
      "claim": 2300,
      "...": 2301,
      "king": 2302,
      "ref": 2303,
      "His": 2304,
      "Co": 2305,
      "ai": 2306,
      "bro": 2307,
      "kill": 2308,
      "flu": 2309,
      "turn": 2310,
      "Ge": 2311,
      "ified": 2312,
      "included": 2313,
      "Dece": 2314,
      "No": 2315,
      "home": 2316,
      "make": 2317,
      "ony": 2318,
      "using": 2319,
      "que": 2320,
      "ster": 2321,
      "ement": 2322,
      "Mo": 2323,
      "aff": 2324,
      "Nove": 2325,
      "cas": 2326,
      "month": 2327,
      "November": 2328,
      "attempt": 2329,
      "December": 2330,
      "March": 2331,
      "ho": 2332,
      "within": 2333,
      "original": 2334,
      "Europe": 2335,
      "issu": 2336,
      "dest": 2337,
      "Ste": 2338,
      "person": 2339,
      "previous": 2340,
      "ropical": 2341,
      "By": 2342,
      "Pro": 2343,
      "There": 2344,
      "review": 2345,
      "period": 2346,
      "those": 2347,
      "tract": 2348,
      "Ad": 2349,
      "ulation": 2350,
      "Sp": 2351,
      "fact": 2352,
      "udi": 2353,
      "ially": 2354,
      "best": 2355,
      "ought": 2356,
      "ler": 2357,
      "estab": 2358,
      "We": 2359,
      "mar": 2360,
      "third": 2361,
      "ze": 2362,
      "Li": 2363,
      "auth": 2364,
      "government": 2365,
      "role": 2366,
      "ences": 2367,
      "games": 2368,
      "lim": 2369,
      "akes": 2370,
      "Tr": 2371,
      "sent": 2372,
      "ched": 2373,
      "avy": 2374,
      "effect": 2375,
      "fel": 2376,
      "fall": 2377,
      "ety": 2378,
      "version": 2379,
      "although": 2380,
      "26": 2381,
      "stud": 2382,
      "River": 2383,
      "ral": 2384,
      "24": 2385,
      "21": 2386,
      "National": 2387,
      "City": 2388,
      "ator": 2389,
      "ush": 2390,
      "test": 2391,
      "move": 2392,
      "iversity": 2393,
      "adv": 2394,
      "And": 2395,
      "stri": 2396,
      "often": 2397,
      "2010": 2398,
      "gram": 2399,
      "wind": 2400,
      "roy": 2401,
      "common": 2402,
      "itary": 2403,
      "colle": 2404,
      "still": 2405,
      "ides": 2406,
      "placed": 2407,
      "100": 2408,
      "und": 2409,
      "addition": 2410,
      "ops": 2411,
      "former": 2412,
      "ctions": 2413,
      "ged": 2414,
      "ik": 2415,
      "possi": 2416,
      "similar": 2417,
      "career": 2418,
      "forman": 2419,
      "trad": 2420,
      "England": 2421,
      "house": 2422,
      "mb": 2423,
      "23": 2424,
      "fac": 2425,
      "ense": 2426,
      "cor": 2427,
      "win": 2428,
      "thing": 2429,
      "urric": 2430,
      "2008": 2431,
      "mid": 2432,
      "round": 2433,
      "stit": 2434,
      "bert": 2435,
      "2009": 2436,
      "Ear": 2437,
      "history": 2438,
      "storm": 2439,
      "riend": 2440,
      "Pe": 2441,
      "gl": 2442,
      "28": 2443,
      "came": 2444,
      "ution": 2445,
      "Mich": 2446,
      "Or": 2447,
      "sty": 2448,
      "Gen": 2449,
      "match": 2450,
      "sport": 2451,
      "different": 2452,
      "Bo": 2453,
      "rap": 2454,
      "half": 2455,
      "next": 2456,
      "aur": 2457,
      "Bar": 2458,
      "aken": 2459,
      "video": 2460,
      "ston": 2461,
      "held": 2462,
      "One": 2463,
      "augh": 2464,
      "ending": 2465,
      "Div": 2466,
      "put": 2467,
      "Inter": 2468,
      "local": 2469,
      "ggest": 2470,
      "Batt": 2471,
      "ared": 2472,
      "considered": 2473,
      "chang": 2474,
      "written": 2475,
      "company": 2476,
      "ali": 2477,
      "suggest": 2478,
      "lor": 2479,
      "vo": 2480,
      "continued": 2481,
      "27": 2482,
      "fr": 2483,
      "ning": 2484,
      "say": 2485,
      "performan": 2486,
      "ensive": 2487,
      "Ed": 2488,
      "ery": 2489,
      "ribut": 2490,
      "inning": 2491,
      "few": 2492,
      "imes": 2493,
      "mag": 2494,
      "import": 2495,
      "command": 2496,
      "na": 2497,
      "site": 2498,
      "club": 2499,
      "ology": 2500,
      "beg": 2501,
      "days": 2502,
      "Te": 2503,
      "however": 2504,
      "ps": 2505,
      "init": 2506,
      "ana": 2507,
      "ering": 2508,
      "strong": 2509,
      "struct": 2510,
      "among": 2511,
      "recorded": 2512,
      "Miss": 2513,
      "you": 2514,
      "Park": 2515,
      "body": 2516,
      "sou": 2517,
      "rench": 2518,
      "draw": 2519,
      "vir": 2520,
      "ene": 2521,
      "fort": 2522,
      "action": 2523,
      "player": 2524,
      "without": 2525,
      "22": 2526,
      "ier": 2527,
      "take": 2528,
      "iter": 2529,
      "aining": 2530,
      "plan": 2531,
      "ampion": 2532,
      "polit": 2533,
      "level": 2534,
      "Although": 2535,
      "graph": 2536,
      "refer": 2537,
      "urricane": 2538,
      "With": 2539,
      "published": 2540,
      "mand": 2541,
      "went": 2542,
      "ittle": 2543,
      "Des": 2544,
      "wood": 2545,
      "itive": 2546,
      "ney": 2547,
      "2007": 2548,
      "further": 2549,
      "Ser": 2550,
      "served": 2551,
      "Ph": 2552,
      "become": 2553,
      "quar": 2554,
      "find": 2555,
      "tele": 2556,
      "ford": 2557,
      "release": 2558,
      "cial": 2559,
      "occur": 2560,
      "English": 2561,
      "force": 2562,
      "exp": 2563,
      "every": 2564,
      "how": 2565,
      "eved": 2566,
      "stead": 2567,
      "foot": 2568,
      "apan": 2569,
      "particular": 2570,
      "uss": 2571,
      "direct": 2572,
      "Pol": 2573,
      "law": 2574,
      "white": 2575,
      "mm": 2576,
      "atic": 2577,
      "State": 2578,
      "bar": 2579,
      "ior": 2580,
      "ination": 2581,
      "father": 2582,
      "Division": 2583,
      "ided": 2584,
      "wide": 2585,
      "Japan": 2586,
      "bruary": 2587,
      "February": 2588,
      "production": 2589,
      "gave": 2590,
      "ox": 2591,
      "seven": 2592,
      "prof": 2593,
      "Canad": 2594,
      "gar": 2595,
      "oute": 2596,
      "pite": 2597,
      "divid": 2598,
      "Count": 2599,
      "French": 2600,
      "ister": 2601,
      "away": 2602,
      "building": 2603,
      "author": 2604,
      "hold": 2605,
      "ices": 2606,
      "rent": 2607,
      "songs": 2608,
      "ives": 2609,
      "provid": 2610,
      "produced": 2611,
      "having": 2612,
      "mit": 2613,
      "oung": 2614,
      "bur": 2615,
      "see": 2616,
      "friend": 2617,
      "influ": 2618,
      "church": 2619,
      "respon": 2620,
      "Char": 2621,
      "iment": 2622,
      "commun": 2623,
      "aster": 2624,
      "Dy": 2625,
      "Mus": 2626,
      "Har": 2627,
      "invol": 2628,
      "post": 2629,
      "craft": 2630,
      "members": 2631,
      "Dav": 2632,
      "sound": 2633,
      "2012": 2634,
      "ner": 2635,
      "190": 2636,
      "times": 2637,
      "Ex": 2638,
      "Per": 2639,
      "2011": 2640,
      "els": 2641,
      "ably": 2642,
      "close": 2643,
      "histor": 2644,
      "29": 2645,
      "2006": 2646,
      "University": 2647,
      "Geor": 2648,
      "aver": 2649,
      "change": 2650,
      "pen": 2651,
      "fire": 2652,
      "stated": 2653,
      "given": 2654,
      "equ": 2655,
      "omet": 2656,
      "anted": 2657,
      "moder": 2658,
      "Cent": 2659,
      "ama": 2660,
      "According": 2661,
      "sure": 2662,
      "successful": 2663,
      "rad": 2664,
      "ways": 2665,
      "chn": 2666,
      "compet": 2667,
      "Su": 2668,
      "face": 2669,
      "include": 2670,
      "military": 2671,
      "William": 2672,
      "40": 2673,
      "BC": 2674,
      "tropical": 2675,
      "ges": 2676,
      "ient": 2677,
      "sit": 2678,
      "aly": 2679,
      "making": 2680,
      "ned": 2681,
      "scri": 2682,
      "2013": 2683,
      "beh": 2684,
      "great": 2685,
      "studi": 2686,
      "League": 2687,
      "omen": 2688,
      "popular": 2689,
      "itar": 2690,
      "returned": 2691,
      "cult": 2692,
      "itch": 2693,
      "never": 2694,
      "ailed": 2695,
      "ances": 2696,
      "total": 2697,
      "itions": 2698,
      "critic": 2699,
      "uses": 2700,
      "lood": 2701,
      "cing": 2702,
      "aren": 2703,
      "title": 2704,
      "should": 2705,
      "look": 2706,
      "To": 2707,
      "aign": 2708,
      "cell": 2709,
      "fron": 2710,
      "indu": 2711,
      "bas": 2712,
      "intro": 2713,
      "While": 2714,
      "construction": 2715,
      "project": 2716,
      "night": 2717,
      "board": 2718,
      "word": 2719,
      "reported": 2720,
      "ones": 2721,
      "tour": 2722,
      "lost": 2723,
      "teen": 2724,
      "depend": 2725,
      "Roman": 2726,
      "seen": 2727,
      "ey": 2728,
      "xim": 2729,
      "ico": 2730,
      "search": 2731,
      "lands": 2732,
      "decl": 2733,
      "These": 2734,
      "Comp": 2735,
      "fan": 2736,
      "died": 2737,
      "arried": 2738,
      "country": 2739,
      "pur": 2740,
      "tell": 2741,
      "comb": 2742,
      "clear": 2743,
      "represent": 2744,
      "Ma": 2745,
      "Ne": 2746,
      "Song": 2747,
      "stre": 2748,
      "introdu": 2749,
      "bor": 2750,
      "ither": 2751,
      "writing": 2752,
      "hip": 2753,
      "net": 2754,
      "ception": 2755,
      "feet": 2756,
      "range": 2757,
      "style": 2758,
      "developed": 2759,
      "children": 2760,
      "Sy": 2761,
      "cop": 2762,
      "program": 2763,
      "Med": 2764,
      "capt": 2765,
      "sum": 2766,
      "ades": 2767,
      "Army": 2768,
      "Jack": 2769,
      "dri": 2770,
      "ots": 2771,
      "reached": 2772,
      "across": 2773,
      "agre": 2774,
      "Cor": 2775,
      "Ho": 2776,
      "announ": 2777,
      "felt": 2778,
      "ively": 2779,
      "novel": 2780,
      "ago": 2781,
      "ours": 2782,
      "chart": 2783,
      "ks": 2784,
      "suff": 2785,
      "control": 2786,
      "County": 2787,
      "bus": 2788,
      "eight": 2789,
      "live": 2790,
      "typ": 2791,
      "development": 2792,
      "Atl": 2793,
      "East": 2794,
      "noted": 2795,
      "himself": 2796,
      "need": 2797,
      "arded": 2798,
      "signific": 2799,
      "room": 2800,
      "anim": 2801,
      "imp": 2802,
      "antic": 2803,
      "interest": 2804,
      "ondon": 2805,
      "coming": 2806,
      "activ": 2807,
      "bird": 2808,
      "Black": 2809,
      "Air": 2810,
      "London": 2811,
      "good": 2812,
      "trave": 2813,
      "General": 2814,
      "discover": 2815,
      "population": 2816,
      "tran": 2817,
      "thought": 2818,
      "television": 2819,
      "Port": 2820,
      "lished": 2821,
      "fem": 2822,
      "Afric": 2823,
      "acy": 2824,
      "ument": 2825,
      "key": 2826,
      "Roy": 2827,
      "iness": 2828,
      "ploy": 2829,
      "mot": 2830,
      "human": 2831,
      "established": 2832,
      "alth": 2833,
      "amb": 2834,
      "works": 2835,
      "campaign": 2836,
      "ability": 2837,
      "gether": 2838,
      "Church": 2839,
      "America": 2840,
      "mount": 2841,
      "nal": 2842,
      "Tw": 2843,
      "189": 2844,
      "El": 2845,
      "wol": 2846,
      "ising": 2847,
      "alion": 2848,
      "too": 2849,
      "manag": 2850,
      "important": 2851,
      "High": 2852,
      "vict": 2853,
      "relation": 2854,
      "del": 2855,
      "ington": 2856,
      "throughout": 2857,
      "reen": 2858,
      "tro": 2859,
      "areas": 2860,
      "ublic": 2861,
      "sett": 2862,
      "medi": 2863,
      "Australia": 2864,
      "cross": 2865,
      "earli": 2866,
      "60": 2867,
      "born": 2868,
      "omb": 2869,
      "techn": 2870,
      "ible": 2871,
      "full": 2872,
      "Reg": 2873,
      "Dr": 2874,
      "ott": 2875,
      "appeared": 2876,
      "ison": 2877,
      "forces": 2878,
      "elect": 2879,
      "mix": 2880,
      "modern": 2881,
      "uc": 2882,
      "igade": 2883,
      "does": 2884,
      "performance": 2885,
      "ample": 2886,
      "caused": 2887,
      "McC": 2888,
      "ael": 2889,
      "fle": 2890,
      "eder": 2891,
      "prim": 2892,
      "miles": 2893,
      "grow": 2894,
      "squ": 2895,
      "Vi": 2896,
      "pra": 2897,
      "script": 2898,
      "Rep": 2899,
      "little": 2900,
      "nd": 2901,
      "destroy": 2902,
      "ogn": 2903,
      "tra": 2904,
      "rew": 2905,
      "pred": 2906,
      "ked": 2907,
      "ivil": 2908,
      "Phil": 2909,
      "omin": 2910,
      "various": 2911,
      "Old": 2912,
      "aint": 2913,
      "iting": 2914,
      "disc": 2915,
      "You": 2916,
      "aul": 2917,
      "gin": 2918,
      "ring": 2919,
      "era": 2920,
      "ological": 2921,
      "others": 2922,
      "significant": 2923,
      "80": 2924,
      "Mont": 2925,
      "abor": 2926,
      "quest": 2927,
      "bes": 2928,
      "complete": 2929,
      "icult": 2930,
      "lect": 2931,
      "reek": 2932,
      "ald": 2933,
      "loss": 2934,
      "sl": 2935,
      "mother": 2936,
      "gest": 2937,
      "idence": 2938,
      "exist": 2939,
      "2005": 2940,
      "ung": 2941,
      "experi": 2942,
      "performed": 2943,
      "cir": 2944,
      "fav": 2945,
      "host": 2946,
      "young": 2947,
      "front": 2948,
      "cause": 2949,
      "non": 2950,
      "entire": 2951,
      "black": 2952,
      "ization": 2953,
      "mission": 2954,
      "political": 2955,
      "taken": 2956,
      "ories": 2957,
      "remained": 2958,
      "Hist": 2959,
      "icated": 2960,
      "months": 2961,
      "asing": 2962,
      "ues": 2963,
      "vill": 2964,
      "ality": 2965,
      "impro": 2966,
      "created": 2967,
      "far": 2968,
      "ula": 2969,
      "formation": 2970,
      "James": 2971,
      "uck": 2972,
      "events": 2973,
      "Sm": 2974,
      "cil": 2975,
      "fig": 2976,
      "rock": 2977,
      "Red": 2978,
      "sw": 2979,
      "bet": 2980,
      "termin": 2981,
      "added": 2982,
      "started": 2983,
      "killed": 2984,
      "sess": 2985,
      "together": 2986,
      "Road": 2987,
      "Australian": 2988,
      "Mount": 2989,
      "theast": 2990,
      "Ir": 2991,
      "ara": 2992,
      "conne": 2993,
      "member": 2994,
      "ille": 2995,
      "Rich": 2996,
      "ival": 2997,
      "characters": 2998,
      "ife": 2999,
      "once": 3000,
      "appoint": 3001,
      "Ha": 3002,
      "inch": 3003,
      "process": 3004,
      "coast": 3005,
      "completed": 3006,
      "alter": 3007,
      "aves": 3008,
      "grad": 3009,
      "hor": 3010,
      "ky": 3011,
      "stant": 3012,
      "special": 3013,
      "nat": 3014,
      "TV": 3015,
      "mass": 3016,
      "players": 3017,
      "Ber": 3018,
      "Pal": 3019,
      "mph": 3020,
      "bel": 3021,
      "located": 3022,
      "Missou": 3023,
      "Min": 3024,
      "Some": 3025,
      "ping": 3026,
      "pair": 3027,
      "sen": 3028,
      "wall": 3029,
      "meet": 3030,
      "battle": 3031,
      "stat": 3032,
      "ioned": 3033,
      "Ire": 3034,
      "Mad": 3035,
      "sex": 3036,
      "tradition": 3037,
      "guns": 3038,
      "announced": 3039,
      "leng": 3040,
      "inv": 3041,
      "instead": 3042,
      "points": 3043,
      "ament": 3044,
      "possible": 3045,
      "Dylan": 3046,
      "So": 3047,
      "omer": 3048,
      "ape": 3049,
      "hon": 3050,
      "enced": 3051,
      "ros": 3052,
      "broad": 3053,
      "difficult": 3054,
      "Mag": 3055,
      "dol": 3056,
      "ull": 3057,
      "break": 3058,
      "Ireland": 3059,
      "2004": 3060,
      "mun": 3061,
      "nia": 3062,
      "western": 3063,
      "followed": 3064,
      "2003": 3065,
      "recogn": 3066,
      "relig": 3067,
      "Jenn": 3068,
      "poem": 3069,
      "redu": 3070,
      "Sun": 3071,
      "bridge": 3072,
      "Ass": 3073,
      "base": 3074,
      "cul": 3075,
      "aper": 3076,
      "peak": 3077,
      "pok": 3078,
      "Ang": 3079,
      "decided": 3080,
      "burn": 3081,
      "lines": 3082,
      "least": 3083,
      "tre": 3084,
      "consist": 3085,
      "opened": 3086,
      "nu": 3087,
      "saw": 3088,
      "example": 3089,
      "eventually": 3090,
      "Love": 3091,
      "Po": 3092,
      "ata": 3093,
      "acc": 3094,
      "ief": 3095,
      "spir": 3096,
      "neg": 3097,
      "positive": 3098,
      "Music": 3099,
      "fif": 3100,
      "rul": 3101,
      "odes": 3102,
      "upon": 3103,
      "know": 3104,
      "Act": 3105,
      "ino": 3106,
      "vest": 3107,
      "comment": 3108,
      "associ": 3109,
      "cru": 3110,
      "har": 3111,
      "ators": 3112,
      "Day": 3113,
      "playing": 3114,
      "region": 3115,
      "god": 3116,
      "ampionship": 3117,
      "Pres": 3118,
      "don": 3119,
      "van": 3120,
      "accept": 3121,
      "super": 3122,
      "proble": 3123,
      "estim": 3124,
      "surv": 3125,
      "features": 3126,
      "rail": 3127,
      "tempor": 3128,
      "wife": 3129,
      "Royal": 3130,
      "individ": 3131,
      "case": 3132,
      "fight": 3133,
      "island": 3134,
      "Company": 3135,
      "vert": 3136,
      "cost": 3137,
      "current": 3138,
      "length": 3139,
      "35": 3140,
      "dle": 3141,
      "either": 3142,
      "audi": 3143,
      "general": 3144,
      "oted": 3145,
      "debut": 3146,
      "critics": 3147,
      "70": 3148,
      "ica": 3149,
      "regular": 3150,
      "service": 3151,
      "San": 3152,
      "2014": 3153,
      "2015": 3154,
      "pat": 3155,
      "women": 3156,
      "ope": 3157,
      "pho": 3158,
      "Town": 3159,
      "voc": 3160,
      "dy": 3161,
      "separ": 3162,
      "David": 3163,
      "sil": 3164,
      "sour": 3165,
      "Kingdom": 3166,
      "rain": 3167,
      "generally": 3168,
      "My": 3169,
      "ov": 3170,
      "NA": 3171,
      "tar": 3172,
      "stone": 3173,
      "originally": 3174,
      "31": 3175,
      "Du": 3176,
      "southern": 3177,
      "Bill": 3178,
      "Thom": 3179,
      "sold": 3180,
      "ential": 3181,
      "lower": 3182,
      "leading": 3183,
      "Ab": 3184,
      "free": 3185,
      "hab": 3186,
      "behind": 3187,
      "ceed": 3188,
      "respect": 3189,
      "meas": 3190,
      "lin": 3191,
      "mater": 3192,
      "ened": 3193,
      "stars": 3194,
      "anti": 3195,
      "Stre": 3196,
      "186": 3197,
      "crew": 3198,
      "Christian": 3199,
      "nine": 3200,
      "fourth": 3201,
      "contract": 3202,
      "brought": 3203,
      "rather": 3204,
      "pression": 3205,
      "George": 3206,
      "God": 3207,
      "hurricane": 3208,
      "route": 3209,
      "believed": 3210,
      "fre": 3211,
      "term": 3212,
      "ida": 3213,
      "elements": 3214,
      "ha": 3215,
      "ug": 3216,
      "urb": 3217,
      "commer": 3218,
      "claimed": 3219,
      "dou": 3220,
      "writer": 3221,
      "directed": 3222,
      "allowed": 3223,
      "45": 3224,
      "reli": 3225,
      "forced": 3226,
      "concl": 3227,
      "profess": 3228,
      "compl": 3229,
      "188": 3230,
      "cup": 3231,
      "almost": 3232,
      "erson": 3233,
      "gress": 3234,
      "ota": 3235,
      "forms": 3236,
      "graphy": 3237,
      "lack": 3238,
      "scored": 3239,
      "eastern": 3240,
      "study": 3241,
      "Don": 3242,
      "Mi": 3243,
      "river": 3244,
      "aircraft": 3245,
      "provided": 3246,
      "Vir": 3247,
      "section": 3248,
      "Play": 3249,
      "cts": 3250,
      "mult": 3251,
      "worked": 3252,
      "appearance": 3253,
      "Robert": 3254,
      "Grand": 3255,
      "Follow": 3256,
      "Game": 3257,
      "uk": 3258,
      "lear": 3259,
      "tee": 3260,
      "Ham": 3261,
      "names": 3262,
      "station": 3263,
      "igned": 3264,
      "cret": 3265,
      "cert": 3266,
      "langu": 3267,
      "Two": 3268,
      "tel": 3269,
      "approach": 3270,
      "nar": 3271,
      "nest": 3272,
      "damage": 3273,
      "highway": 3274,
      "Am": 3275,
      "assist": 3276,
      "Fir": 3277,
      "Sci": 3278,
      "prob": 3279,
      "emy": 3280,
      "pract": 3281,
      "pie": 3282,
      "argu": 3283,
      "mean": 3284,
      "goal": 3285,
      "But": 3286,
      "da": 3287,
      "foc": 3288,
      "tail": 3289,
      "lled": 3290,
      "Ke": 3291,
      "ique": 3292,
      "thod": 3293,
      "towards": 3294,
      "central": 3295,
      "help": 3296,
      "erous": 3297,
      "rick": 3298,
      "weeks": 3299,
      "Sw": 3300,
      "bri": 3301,
      "wanted": 3302,
      "inal": 3303,
      "aps": 3304,
      "joined": 3305,
      "Following": 3306,
      "Sch": 3307,
      "stage": 3308,
      "ends": 3309,
      "object": 3310,
      "subsequ": 3311,
      "certain": 3312,
      "cially": 3313,
      "ready": 3314,
      "usually": 3315,
      "istic": 3316,
      "European": 3317,
      "House": 3318,
      "Part": 3319,
      "ration": 3320,
      "director": 3321,
      "Flor": 3322,
      "Jo": 3323,
      "bound": 3324,
      "territ": 3325,
      "ids": 3326,
      "flag": 3327,
      "designed": 3328,
      "Cr": 3329,
      "Val": 3330,
      "treat": 3331,
      "stry": 3332,
      "finished": 3333,
      "yard": 3334,
      "2001": 3335,
      "International": 3336,
      "particularly": 3337,
      "36": 3338,
      "defe": 3339,
      "France": 3340,
      "Cup": 3341,
      "Em": 3342,
      "Sen": 3343,
      "Sim": 3344,
      "Jennings": 3345,
      "Hen": 3346,
      "Other": 3347,
      "race": 3348,
      "Michael": 3349,
      "Hol": 3350,
      "Mex": 3351,
      "reason": 3352,
      "defin": 3353,
      "azine": 3354,
      "Republic": 3355,
      "Coun": 3356,
      "heavy": 3357,
      "adron": 3358,
      "above": 3359,
      "employ": 3360,
      "working": 3361,
      "cycl": 3362,
      "court": 3363,
      "conom": 3364,
      "featured": 3365,
      "Jew": 3366,
      "ply": 3367,
      "tor": 3368,
      "90": 3369,
      "Paul": 3370,
      "reve": 3371,
      "love": 3372,
      "compan": 3373,
      "Brigade": 3374,
      "Rock": 3375,
      "aven": 3376,
      "mic": 3377,
      "rid": 3378,
      "atory": 3379,
      "Japanese": 3380,
      "500": 3381,
      "quick": 3382,
      "Island": 3383,
      "proper": 3384,
      "iction": 3385,
      "From": 3386,
      "ify": 3387,
      "issue": 3388,
      "Care": 3389,
      "hest": 3390,
      "Mac": 3391,
      "Squ": 3392,
      "Battalion": 3393,
      "Best": 3394,
      "passed": 3395,
      "Street": 3396,
      "Feder": 3397,
      "outside": 3398,
      "185": 3399,
      "parts": 3400,
      "coll": 3401,
      "opening": 3402,
      "ming": 3403,
      "dies": 3404,
      "oney": 3405,
      "aire": 3406,
      "date": 3407,
      "prec": 3408,
      "ication": 3409,
      "resp": 3410,
      "ize": 3411,
      "White": 3412,
      "laun": 3413,
      "business": 3414,
      "earlier": 3415,
      "75": 3416,
      "hom": 3417,
      "whe": 3418,
      "research": 3419,
      "Star": 3420,
      "Mary": 3421,
      "Pri": 3422,
      "School": 3423,
      "tion": 3424,
      "illa": 3425,
      "avail": 3426,
      "largest": 3427,
      "Cap": 3428,
      "edy": 3429,
      "ention": 3430,
      "engine": 3431,
      "Brown": 3432,
      "Mid": 3433,
      "bit": 3434,
      "atin": 3435,
      "relationship": 3436,
      "Mor": 3437,
      "replaced": 3438,
      "soon": 3439,
      "somet": 3440,
      "sea": 3441,
      "whom": 3442,
      "text": 3443,
      "shif": 3444,
      "aker": 3445,
      "hous": 3446,
      "mal": 3447,
      "aries": 3448,
      "ocial": 3449,
      "evidence": 3450,
      "northern": 3451,
      "counter": 3452,
      "involved": 3453,
      "average": 3454,
      "victory": 3455,
      "First": 3456,
      "AA": 3457,
      "Ver": 3458,
      "bill": 3459,
      "ded": 3460,
      "fly": 3461,
      "thus": 3462,
      "inj": 3463,
      "account": 3464,
      "unk": 3465,
      "2002": 3466,
      "Indian": 3467,
      "saying": 3468,
      "structure": 3469,
      "Wal": 3470,
      "cal": 3471,
      "ius": 3472,
      "native": 3473,
      "maintain": 3474,
      "ociety": 3475,
      "standing": 3476,
      "previously": 3477,
      "Bu": 3478,
      "Cong": 3479,
      "Gl": 3480,
      "Most": 3481,
      "drop": 3482,
      "hit": 3483,
      "ials": 3484,
      "za": 3485,
      "sele": 3486,
      "Florida": 3487,
      "aut": 3488,
      "here": 3489,
      "must": 3490,
      "ays": 3491,
      "transfer": 3492,
      "pan": 3493,
      "inst": 3494,
      "ries": 3495,
      "ishing": 3496,
      "Tri": 3497,
      "tic": 3498,
      "stop": 3499,
      "condu": 3500,
      "space": 3501,
      "2nd": 3502,
      "Bel": 3503,
      "Qu": 3504,
      "give": 3505,
      "seem": 3506,
      "19th": 3507,
      "winds": 3508,
      "38": 3509,
      "itz": 3510,
      "sell": 3511,
      "praised": 3512,
      "Thomas": 3513,
      "Ev": 3514,
      "Pac": 3515,
      "gold": 3516,
      "past": 3517,
      "phas": 3518,
      "watch": 3519,
      "pressed": 3520,
      "liament": 3521,
      "rac": 3522,
      "rate": 3523,
      "vice": 3524,
      "feel": 3525,
      "buildings": 3526,
      "official": 3527,
      "increased": 3528,
      "birds": 3529,
      "amount": 3530,
      "specific": 3531,
      "fantry": 3532,
      "Atlantic": 3533,
      "Res": 3534,
      "flood": 3535,
      "ume": 3536,
      "tons": 3537,
      "ville": 3538,
      "phys": 3539,
      "signed": 3540,
      "manager": 3541,
      "respond": 3542,
      "hard": 3543,
      "igan": 3544,
      "conc": 3545,
      "shot": 3546,
      "Ros": 3547,
      "bal": 3548,
      "hig": 3549,
      "minist": 3550,
      "operations": 3551,
      "Str": 3552,
      "deal": 3553,
      "ples": 3554,
      "anned": 3555,
      "Despite": 3556,
      "football": 3557,
      "Dep": 3558,
      "think": 3559,
      "invest": 3560,
      "Ap": 3561,
      "daugh": 3562,
      "ecut": 3563,
      "ributed": 3564,
      "Canada": 3565,
      "natural": 3566,
      "Virgin": 3567,
      "ilities": 3568,
      "Mark": 3569,
      "bi": 3570,
      "hours": 3571,
      "deli": 3572,
      "idea": 3573,
      "ference": 3574,
      "stren": 3575,
      "type": 3576,
      "useum": 3577,
      "Go": 3578,
      "Lu": 3579,
      "Que": 3580,
      "uel": 3581,
      "told": 3582,
      "comes": 3583,
      "president": 3584,
      "limited": 3585,
      "female": 3586,
      "estimated": 3587,
      "Hall": 3588,
      "ds": 3589,
      "taking": 3590,
      "ateg": 3591,
      "actions": 3592,
      "suggested": 3593,
      "highest": 3594,
      "1st": 3595,
      "Oly": 3596,
      "Penn": 3597,
      "SA": 3598,
      "Ze": 3599,
      "ault": 3600,
      "spr": 3601,
      "usion": 3602,
      "scene": 3603,
      "going": 3604,
      "responsi": 3605,
      "introduced": 3606,
      "President": 3607,
      "available": 3608,
      "Hill": 3609,
      "scen": 3610,
      "commiss": 3611,
      "III": 3612,
      "particip": 3613,
      "La": 3614,
      "Spok": 3615,
      "Wales": 3616,
      "ding": 3617,
      "lay": 3618,
      "might": 3619,
      "itself": 3620,
      "Viet": 3621,
      "Olymp": 3622,
      "Later": 3623,
      "icted": 3624,
      "poor": 3625,
      "listed": 3626,
      "Mill": 3627,
      "econom": 3628,
      "yards": 3629,
      "sem": 3630,
      "clos": 3631,
      "Richard": 3632,
      "Pacific": 3633,
      "Navy": 3634,
      "sky": 3635,
      "Cam": 3636,
      "enter": 3637,
      "187": 3638,
      "ption": 3639,
      "flight": 3640,
      "situ": 3641,
      "frequ": 3642,
      "ging": 3643,
      "pot": 3644,
      "aled": 3645,
      "units": 3646,
      "occup": 3647,
      "increasing": 3648,
      "streng": 3649,
      "alo": 3650,
      "size": 3651,
      "commit": 3652,
      "related": 3653,
      "required": 3654,
      "changes": 3655,
      "troops": 3656,
      "Mil": 3657,
      "Wood": 3658,
      "itor": 3659,
      "ayed": 3660,
      "awarded": 3661,
      "Command": 3662,
      "asked": 3663,
      "turned": 3664,
      "sometimes": 3665,
      "Fur": 3666,
      "civil": 3667,
      "ties": 3668,
      "viol": 3669,
      "2000": 3670,
      "enough": 3671,
      "according": 3672,
      "possib": 3673,
      "ns": 3674,
      "ept": 3675,
      "interview": 3676,
      "Bra": 3677,
      "Cour": 3678,
      "evol": 3679,
      "ification": 3680,
      "Hero": 3681,
      "cele": 3682,
      "ctive": 3683,
      "utes": 3684,
      "ordered": 3685,
      "prevent": 3686,
      "Spokane": 3687,
      "Pre": 3688,
      "espe": 3689,
      "ully": 3690,
      "moving": 3691,
      "temporary": 3692,
      "especially": 3693,
      "Er": 3694,
      "hol": 3695,
      "pain": 3696,
      "sch": 3697,
      "occas": 3698,
      "percent": 3699,
      "mach": 3700,
      "sat": 3701,
      "forward": 3702,
      "irth": 3703,
      "ordan": 3704,
      "whose": 3705,
      "Arch": 3706,
      "quarter": 3707,
      "appointed": 3708,
      "jour": 3709,
      "woman": 3710,
      "acqu": 3711,
      "apt": 3712,
      "spent": 3713,
      "That": 3714,
      "threat": 3715,
      "center": 3716,
      "likely": 3717,
      "initially": 3718,
      "Award": 3719,
      "nation": 3720,
      "rup": 3721,
      "independ": 3722,
      "ases": 3723,
      "active": 3724,
      "Bay": 3725,
      "happ": 3726,
      "ny": 3727,
      "vate": 3728,
      "aring": 3729,
      "ami": 3730,
      "poet": 3731,
      "inner": 3732,
      "marked": 3733,
      "Henry": 3734,
      "95": 3735,
      "Dom": 3736,
      "educ": 3737,
      "recording": 3738,
      "shows": 3739,
      "mixed": 3740,
      "Do": 3741,
      "Fl": 3742,
      "FA": 3743,
      "If": 3744,
      "bow": 3745,
      "agon": 3746,
      "Gal": 3747,
      "Mer": 3748,
      "doc": 3749,
      "wa": 3750,
      "zz": 3751,
      "conf": 3752,
      "Chic": 3753,
      "reme": 3754,
      "league": 3755,
      "goals": 3756,
      "approxim": 3757,
      "transport": 3758,
      "circ": 3759,
      "Mal": 3760,
      "pected": 3761,
      "lie": 3762,
      "osaur": 3763,
      "Gar": 3764,
      "office": 3765,
      "syn": 3766,
      "remains": 3767,
      "village": 3768,
      "Tex": 3769,
      "liter": 3770,
      "pool": 3771,
      "Chin": 3772,
      "Early": 3773,
      "Super": 3774,
      "33": 3775,
      "Jordan": 3776,
      "mat": 3777,
      "eding": 3778,
      "screen": 3779,
      "Colle": 3780,
      "establish": 3781,
      "language": 3782,
      "concern": 3783,
      "Many": 3784,
      "rd": 3785,
      "arily": 3786,
      "despite": 3787,
      "rict": 3788,
      "nearly": 3789,
      "India": 3790,
      "Dan": 3791,
      "tourn": 3792,
      "Union": 3793,
      "soldi": 3794,
      "beginning": 3795,
      "commercial": 3796,
      "Ba": 3797,
      "Spe": 3798,
      "Ter": 3799,
      "training": 3800,
      "reviews": 3801,
      "additional": 3802,
      "48": 3803,
      "Gold": 3804,
      "Oli": 3805,
      "latter": 3806,
      "mel": 3807,
      "conv": 3808,
      "aval": 3809,
      "probably": 3810,
      "Lake": 3811,
      "oid": 3812,
      "already": 3813,
      "block": 3814,
      "larger": 3815,
      "better": 3816,
      "Carey": 3817,
      "Del": 3818,
      "Times": 3819,
      "flow": 3820,
      "food": 3821,
      "immedi": 3822,
      "numbers": 3823,
      "ronic": 3824,
      "complex": 3825,
      "Battle": 3826,
      "religious": 3827,
      "Chicago": 3828,
      "Dis": 3829,
      "Tom": 3830,
      "execut": 3831,
      "keep": 3832,
      "dise": 3833,
      "films": 3834,
      "Associ": 3835,
      "Tor": 3836,
      "hop": 3837,
      "notes": 3838,
      "condom": 3839,
      "election": 3840,
      "Carol": 3841,
      "alifor": 3842,
      "Awards": 3843,
      "Dou": 3844,
      "fut": 3845,
      "failed": 3846,
      "paren": 3847,
      "bell": 3848,
      "Earth": 3849,
      "Fort": 3850,
      "Je": 3851,
      "bacter": 3852,
      "hib": 3853,
      "ady": 3854,
      "remaining": 3855,
      "Michigan": 3856,
      "History": 3857,
      "material": 3858,
      "Film": 3859,
      "pay": 3860,
      "uments": 3861,
      "uded": 3862,
      "archite": 3863,
      "surround": 3864,
      "Western": 3865,
      "discovered": 3866,
      "Bus": 3867,
      "Rose": 3868,
      "wick": 3869,
      "inated": 3870,
      "proposed": 3871,
      "changed": 3872,
      "McCain": 3873,
      "Angel": 3874,
      "got": 3875,
      "ires": 3876,
      "mor": 3877,
      "staff": 3878,
      "amed": 3879,
      "selves": 3880,
      "broadcast": 3881,
      "ili": 3882,
      "Califor": 3883,
      "Turn": 3884,
      "olic": 3885,
      "hero": 3886,
      "box": 3887,
      "habit": 3888,
      "Hel": 3889,
      "Jer": 3890,
      "married": 3891,
      "uals": 3892,
      "winning": 3893,
      "army": 3894,
      "pressure": 3895,
      "prepar": 3896,
      "includes": 3897,
      "Federer": 3898,
      "37": 3899,
      "social": 3900,
      "access": 3901,
      "perform": 3902,
      "iving": 3903,
      "Britain": 3904,
      "constructed": 3905,
      "Cro": 3906,
      "Great": 3907,
      "Sam": 3908,
      "cred": 3909,
      "rat": 3910,
      "states": 3911,
      "score": 3912,
      "capital": 3913,
      "brother": 3914,
      "Irish": 3915,
      "defeated": 3916,
      "arrived": 3917,
      "episodes": 3918,
      "decision": 3919,
      "agreed": 3920,
      "ken": 3921,
      "rare": 3922,
      "ites": 3923,
      "pose": 3924,
      "log": 3925,
      "Arab": 3926,
      "effects": 3927,
      "quarters": 3928,
      "Bell": 3929,
      "aters": 3930,
      "attract": 3931,
      "enj": 3932,
      "adop": 3933,
      "ump": 3934,
      "appears": 3935,
      "Charles": 3936,
      "community": 3937,
      "discuss": 3938,
      "Mexico": 3939,
      "Law": 3940,
      "intens": 3941,
      "minor": 3942,
      "musical": 3943,
      "Bey": 3944,
      "Canadian": 3945,
      "approximately": 3946,
      "Games": 3947,
      "carried": 3948,
      "anch": 3949,
      "speed": 3950,
      "international": 3951,
      "forest": 3952,
      "birth": 3953,
      "pow": 3954,
      "oring": 3955,
      "becoming": 3956,
      "verse": 3957,
      "runs": 3958,
      "Virginia": 3959,
      "47": 3960,
      "Hurricane": 3961,
      "mir": 3962,
      "slow": 3963,
      "aland": 3964,
      "heav": 3965,
      "ett": 3966,
      "lies": 3967,
      "intended": 3968,
      "temper": 3969,
      "daughter": 3970,
      "Haw": 3971,
      "orial": 3972,
      "Championship": 3973,
      "Africa": 3974,
      "fifth": 3975,
      "Chinese": 3976,
      "California": 3977,
      "scrap": 3978,
      "themselves": 3979,
      "damaged": 3980,
      "summer": 3981,
      "Egy": 3982,
      "Lou": 3983,
      "Tre": 3984,
      "bs": 3985,
      "dead": 3986,
      "relative": 3987,
      "subject": 3988,
      "feature": 3989,
      "occurred": 3990,
      "brief": 3991,
      "Creek": 3992,
      "Off": 3993,
      "RA": 3994,
      "fill": 3995,
      "lot": 3996,
      "money": 3997,
      "wal": 3998,
      "fleet": 3999,
      "Im": 4000,
      "Since": 4001,
      "hood": 4002,
      "mis": 4003,
      "artment": 4004,
      "groups": 4005,
      "undred": 4006,
      "44": 4007,
      "Hu": 4008,
      "ba": 4009,
      "asy": 4010,
      "appl": 4011,
      "provide": 4012,
      "Sing": 4013,
      "Tran": 4014,
      "fail": 4015,
      "lam": 4016,
      "nel": 4017,
      "teach": 4018,
      "media": 4019,
      "location": 4020,
      "zy": 4021,
      "ena": 4022,
      "roll": 4023,
      "cean": 4024,
      "contr": 4025,
      "overnor": 4026,
      "ously": 4027,
      "worth": 4028,
      "prior": 4029,
      "Peter": 4030,
      "mitted": 4031,
      "Zealand": 4032,
      "BA": 4033,
      "Sou": 4034,
      "ency": 4035,
      "response": 4036,
      "studio": 4037,
      "Jackson": 4038,
      "wolves": 4039,
      "quickly": 4040,
      "male": 4041,
      "ror": 4042,
      "thick": 4043,
      "itation": 4044,
      "shoot": 4045,
      "exam": 4046,
      "course": 4047,
      "Year": 4048,
      "bio": 4049,
      "andon": 4050,
      "atest": 4051,
      "peror": 4052,
      "mostly": 4053,
      "vey": 4054,
      "party": 4055,
      "surface": 4056,
      "favor": 4057,
      "problems": 4058,
      "Olivi": 4059,
      "future": 4060,
      "Hor": 4061,
      "pet": 4062,
      "arran": 4063,
      "ita": 4064,
      "eway": 4065,
      "coach": 4066,
      "Record": 4067,
      "fully": 4068,
      "ario": 4069,
      "supported": 4070,
      "increase": 4071,
      "always": 4072,
      "health": 4073,
      "jected": 4074,
      "largely": 4075,
      "positions": 4076,
      "consider": 4077,
      "movement": 4078,
      "Tour": 4079,
      "UK": 4080,
      "sal": 4081,
      "ergy": 4082,
      "20th": 4083,
      "1999": 4084,
      "Missouri": 4085,
      "39": 4086,
      "Lo": 4087,
      "nomin": 4088,
      "pit": 4089,
      "alle": 4090,
      "assigned": 4091,
      "arriage": 4092,
      "running": 4093,
      "market": 4094,
      "affic": 4095,
      "experience": 4096,
      "fru": 4097,
      "pitch": 4098,
      "lyric": 4099,
      "ranked": 4100,
      "longer": 4101,
      "Scott": 4102,
      "radio": 4103,
      "dollar": 4104,
      "Not": 4105,
      "fell": 4106,
      "touch": 4107,
      "heel": 4108,
      "otion": 4109,
      "arts": 4110,
      "exc": 4111,
      "earned": 4112,
      "spital": 4113,
      "metres": 4114,
      "smaller": 4115,
      "How": 4116,
      "Mic": 4117,
      "gent": 4118,
      "ream": 4119,
      "plays": 4120,
      "Billboard": 4121,
      "Egypt": 4122,
      "Vict": 4123,
      "plot": 4124,
      "lived": 4125,
      "emer": 4126,
      "fected": 4127,
      "contains": 4128,
      "Art": 4129,
      "anna": 4130,
      "cient": 4131,
      "Tech": 4132,
      "captured": 4133,
      "Mos": 4134,
      "link": 4135,
      "vic": 4136,
      "iser": 4137,
      "method": 4138,
      "teams": 4139,
      "Guitar": 4140,
      "aught": 4141,
      "Mr": 4142,
      "Rac": 4143,
      "Sol": 4144,
      "bomb": 4145,
      "fa": 4146,
      "gir": 4147,
      "sey": 4148,
      "terms": 4149,
      "idents": 4150,
      "ership": 4151,
      "bring": 4152,
      "create": 4153,
      "visit": 4154,
      "northeast": 4155,
      "1995": 4156,
      "49": 4157,
      "bon": 4158,
      "entered": 4159,
      "secut": 4160,
      "load": 4161,
      "upper": 4162,
      "rael": 4163,
      "indic": 4164,
      "Somer": 4165,
      "gal": 4166,
      "nature": 4167,
      "chap": 4168,
      "deb": 4169,
      "ellow": 4170,
      "exper": 4171,
      "mann": 4172,
      "magazine": 4173,
      "viron": 4174,
      "photo": 4175,
      "Cer": 4176,
      "park": 4177,
      "ram": 4178,
      "spo": 4179,
      "dev": 4180,
      "1950": 4181,
      "necess": 4182,
      "police": 4183,
      "Squadron": 4184,
      "Association": 4185,
      "Ale": 4186,
      "Bal": 4187,
      "Sir": 4188,
      "cou": 4189,
      "yer": 4190,
      "ises": 4191,
      "tom": 4192,
      "1930": 4193,
      "shown": 4194,
      "32": 4195,
      "bad": 4196,
      "ga": 4197,
      "makes": 4198,
      "yn": 4199,
      "ado": 4200,
      "rian": 4201,
      "print": 4202,
      "minutes": 4203,
      "function": 4204,
      "competition": 4205,
      "destroyed": 4206,
      "66": 4207,
      "bank": 4208,
      "purch": 4209,
      "sus": 4210,
      "depart": 4211,
      "contest": 4212,
      "suit": 4213,
      "sequence": 4214,
      "private": 4215,
      "Texas": 4216,
      "cé": 4217,
      "insp": 4218,
      "ander": 4219,
      "living": 4220,
      "Ital": 4221,
      "anning": 4222,
      "orning": 4223,
      "operation": 4224,
      "Israel": 4225,
      "voice": 4226,
      "referred": 4227,
      "Court": 4228,
      "3rd": 4229,
      "done": 4230,
      "ores": 4231,
      "ining": 4232,
      "theme": 4233,
      "determin": 4234,
      "reser": 4235,
      "guitar": 4236,
      "Under": 4237,
      "observ": 4238,
      "records": 4239,
      "Regiment": 4240,
      "primary": 4241,
      "Over": 4242,
      "cm": 4243,
      "mas": 4244,
      "onto": 4245,
      "rison": 4246,
      "stitute": 4247,
      "professional": 4248,
      "Hon": 4249,
      "Wash": 4250,
      "hair": 4251,
      "kind": 4252,
      "brew": 4253,
      "Polish": 4254,
      "soldiers": 4255,
      "mom": 4256,
      "deep": 4257,
      "compared": 4258,
      "Cath": 4259,
      "aging": 4260,
      "stories": 4261,
      "Second": 4262,
      "itting": 4263,
      "personal": 4264,
      "wolf": 4265,
      "architect": 4266,
      "Ca": 4267,
      "Foot": 4268,
      "Oper": 4269,
      "jud": 4270,
      "mist": 4271,
      "ray": 4272,
      "ti": 4273,
      "isl": 4274,
      "bey": 4275,
      "umb": 4276,
      "div": 4277,
      "possess": 4278,
      "archae": 4279,
      "Enter": 4280,
      "Germany": 4281,
      "request": 4282,
      "influence": 4283,
      "ben": 4284,
      "dig": 4285,
      "leave": 4286,
      "concept": 4287,
      "finan": 4288,
      "Frank": 4289,
      "whether": 4290,
      "scenes": 4291,
      "celebr": 4292,
      "Back": 4293,
      "ker": 4294,
      "mur": 4295,
      "defeat": 4296,
      "division": 4297,
      "boy": 4298,
      "critical": 4299,
      "majority": 4300,
      "Central": 4301,
      "Sar": 4302,
      "coup": 4303,
      "leaving": 4304,
      "ulated": 4305,
      "clim": 4306,
      "1998": 4307,
      "stein": 4308,
      "portr": 4309,
      "officers": 4310,
      "Oldham": 4311,
      "closed": 4312,
      "Victor": 4313,
      "46": 4314,
      "Los": 4315,
      "Mart": 4316,
      "flo": 4317,
      "path": 4318,
      "demon": 4319,
      "traffic": 4320,
      "raised": 4321,
      "Che": 4322,
      "uter": 4323,
      "itian": 4324,
      "alled": 4325,
      "180": 4326,
      "Another": 4327,
      "tracks": 4328,
      "Acad": 4329,
      "equip": 4330,
      "Washington": 4331,
      "Wol": 4332,
      "Wheel": 4333,
      "big": 4334,
      "orm": 4335,
      "Hebrew": 4336,
      "newsp": 4337,
      "question": 4338,
      "Bro": 4339,
      "Camp": 4340,
      "Latin": 4341,
      "Tur": 4342,
      "grand": 4343,
      "distin": 4344,
      "attacks": 4345,
      "activity": 4346,
      "schol": 4347,
      "Fre": 4348,
      "Light": 4349,
      "Ty": 4350,
      "rein": 4351,
      "chall": 4352,
      "twent": 4353,
      "Station": 4354,
      "Northern": 4355,
      "covered": 4356,
      "Center": 4357,
      "double": 4358,
      "meaning": 4359,
      "Bur": 4360,
      "Pat": 4361,
      "Sur": 4362,
      "fish": 4363,
      "hus": 4364,
      "iation": 4365,
      "thedr": 4366,
      "ederal": 4367,
      "depression": 4368,
      "abs": 4369,
      "minute": 4370,
      "venue": 4371,
      "Johnson": 4372,
      "Dist": 4373,
      "Hot": 4374,
      "Route": 4375,
      "han": 4376,
      "oncé": 4377,
      "step": 4378,
      "itude": 4379,
      "via": 4380,
      "Scot": 4381,
      "students": 4382,
      "directly": 4383,
      "subsequently": 4384,
      "selected": 4385,
      "Beyoncé": 4386,
      "Out": 4387,
      "confl": 4388,
      "vie": 4389,
      "1996": 4390,
      "individual": 4391,
      "source": 4392,
      "Olivier": 4393,
      "NY": 4394,
      "dark": 4395,
      "rect": 4396,
      "oured": 4397,
      "overall": 4398,
      "acting": 4399,
      "iple": 4400,
      "aware": 4401,
      "scient": 4402,
      "observed": 4403,
      "Newton": 4404,
      "1993": 4405,
      "status": 4406,
      "vironment": 4407,
      "Nash": 4408,
      "clo": 4409,
      "meant": 4410,
      "anger": 4411,
      "books": 4412,
      "improve": 4413,
      "commented": 4414,
      "disease": 4415,
      "secur": 4416,
      "progress": 4417,
      "expand": 4418,
      "associated": 4419,
      "inspired": 4420,
      "300": 4421,
      "Os": 4422,
      "Ot": 4423,
      "Sal": 4424,
      "bot": 4425,
      "iny": 4426,
      "removed": 4427,
      "ishop": 4428,
      "helped": 4429,
      "carry": 4430,
      "industry": 4431,
      "settle": 4432,
      "94": 4433,
      "fit": 4434,
      "ki": 4435,
      "anish": 4436,
      "ultim": 4437,
      "trade": 4438,
      "artist": 4439,
      "stra": 4440,
      "bodies": 4441,
      "portion": 4442,
      "whole": 4443,
      "Its": 4444,
      "colon": 4445,
      "incor": 4446,
      "culture": 4447,
      "Fore": 4448,
      "hi": 4449,
      "things": 4450,
      "ato": 4451,
      "gue": 4452,
      "spect": 4453,
      "athlet": 4454,
      "regard": 4455,
      "planet": 4456,
      "traditional": 4457,
      "piece": 4458,
      "lyrics": 4459,
      "Sto": 4460,
      "cere": 4461,
      "pi": 4462,
      "except": 4463,
      "expected": 4464,
      "earth": 4465,
      "2016": 4466,
      "weight": 4467,
      "protest": 4468,
      "variety": 4469,
      "giving": 4470,
      "Both": 4471,
      "hundred": 4472,
      "sched": 4473,
      "takes": 4474,
      "anal": 4475,
      "ipal": 4476,
      "stream": 4477,
      "Jewish": 4478,
      "Land": 4479,
      "Lord": 4480,
      "andid": 4481,
      "actor": 4482,
      "prison": 4483,
      "presented": 4484,
      "friends": 4485,
      "launched": 4486,
      "thedral": 4487,
      "Boy": 4488,
      "farm": 4489,
      "ento": 4490,
      "something": 4491,
      "legal": 4492,
      "information": 4493,
      "thes": 4494,
      "atre": 4495,
      "plans": 4496,
      "qual": 4497,
      "aily": 4498,
      "symb": 4499,
      "issued": 4500,
      "tournament": 4501,
      "Met": 4502,
      "fast": 4503,
      "tax": 4504,
      "throw": 4505,
      "stay": 4506,
      "below": 4507,
      "image": 4508,
      "abandon": 4509,
      "achi": 4510,
      "bled": 4511,
      "produce": 4512,
      "stitut": 4513,
      "hic": 4514,
      "istics": 4515,
      "attacked": 4516,
      "fans": 4517,
      "job": 4518,
      "means": 4519,
      "writers": 4520,
      "polic": 4521,
      "Spanish": 4522,
      "suffered": 4523,
      "respectively": 4524,
      "College": 4525,
      "4th": 4526,
      "Adam": 4527,
      "Sever": 4528,
      "cu": 4529,
      "ience": 4530,
      "rical": 4531,
      "rem": 4532,
      "escap": 4533,
      "Their": 4534,
      "1997": 4535,
      "numerous": 4536,
      "Club": 4537,
      "needed": 4538,
      "Fin": 4539,
      "Rad": 4540,
      "bing": 4541,
      "wing": 4542,
      "yet": 4543,
      "ona": 4544,
      "serious": 4545,
      "producer": 4546,
      "struction": 4547,
      "Service": 4548,
      "reduced": 4549,
      "fighting": 4550,
      "Bow": 4551,
      "Cal": 4552,
      "Water": 4553,
      "kick": 4554,
      "marriage": 4555,
      "spl": 4556,
      "slight": 4557,
      "mode": 4558,
      "shire": 4559,
      "neigh": 4560,
      "lif": 4561,
      "pret": 4562,
      "maxim": 4563,
      "Prince": 4564,
      "inches": 4565,
      "territory": 4566,
      "Wheeler": 4567,
      "400": 4568,
      "FI": 4569,
      "Jin": 4570,
      "NC": 4571,
      "inte": 4572,
      "edge": 4573,
      "sets": 4574,
      "Leg": 4575,
      "levels": 4576,
      "Smith": 4577,
      "meeting": 4578,
      "Council": 4579,
      "conducted": 4580,
      "Ever": 4581,
      "Long": 4582,
      "Time": 4583,
      "demand": 4584,
      "imm": 4585,
      "unit": 4586,
      "cting": 4587,
      "planned": 4588,
      "pole": 4589,
      "formula": 4590,
      "issues": 4591,
      "Just": 4592,
      "Russ": 4593,
      "sister": 4594,
      "administ": 4595,
      "uries": 4596,
      "finally": 4597,
      "izing": 4598,
      "conditions": 4599,
      "higher": 4600,
      "severe": 4601,
      "Big": 4602,
      "cers": 4603,
      "ech": 4604,
      "inent": 4605,
      "really": 4606,
      "forts": 4607,
      "Studi": 4608,
      "attention": 4609,
      "greater": 4610,
      "Turner": 4611,
      "Mem": 4612,
      "Sum": 4613,
      "Saint": 4614,
      "aj": 4615,
      "crow": 4616,
      "dem": 4617,
      "unable": 4618,
      "ulations": 4619,
      "ension": 4620,
      "syl": 4621,
      "Sea": 4622,
      "nearby": 4623,
      "extended": 4624,
      "greatest": 4625,
      "network": 4626,
      "Congress": 4627,
      "investig": 4628,
      "parents": 4629,
      "Kar": 4630,
      "Tay": 4631,
      "kil": 4632,
      "want": 4633,
      "winter": 4634,
      "inside": 4635,
      "composed": 4636,
      "ounds": 4637,
      "logy": 4638,
      "Parliament": 4639,
      "countries": 4640,
      "rapid": 4641,
      "Series": 4642,
      "Party": 4643,
      "responsible": 4644,
      "husband": 4645,
      "MS": 4646,
      "cam": 4647,
      "tur": 4648,
      "presence": 4649,
      "write": 4650,
      "appearances": 4651,
      "copies": 4652,
      "horse": 4653,
      "Rachel": 4654,
      "42": 4655,
      "Cross": 4656,
      "MD": 4657,
      "Tem": 4658,
      "Var": 4659,
      "dated": 4660,
      "hou": 4661,
      "kin": 4662,
      "rum": 4663,
      "ican": 4664,
      "adult": 4665,
      "beat": 4666,
      "elected": 4667,
      "distance": 4668,
      "attempted": 4669,
      "Jul": 4670,
      "eve": 4671,
      "instr": 4672,
      "semb": 4673,
      "ulf": 4674,
      "iano": 4675,
      "ports": 4676,
      "offered": 4677,
      "starting": 4678,
      "standard": 4679,
      "performances": 4680,
      "Van": 4681,
      "chief": 4682,
      "Brad": 4683,
      "figure": 4684,
      "Croat": 4685,
      "enjoy": 4686,
      "Hawai": 4687,
      "Louis": 4688,
      "Fle": 4689,
      "Hum": 4690,
      "gian": 4691,
      "lers": 4692,
      "iles": 4693,
      "resulted": 4694,
      "allowing": 4695,
      "cyclone": 4696,
      "43": 4697,
      "sa": 4698,
      "schools": 4699,
      "houses": 4700,
      "Academy": 4701,
      "Jim": 4702,
      "ML": 4703,
      "send": 4704,
      "oud": 4705,
      "detail": 4706,
      "prov": 4707,
      "1992": 4708,
      "impact": 4709,
      "African": 4710,
      "immediately": 4711,
      "Crit": 4712,
      "Jose": 4713,
      "hu": 4714,
      "waters": 4715,
      "ows": 4716,
      "annual": 4717,
      "1986": 4718,
      "services": 4719,
      "refused": 4720,
      "square": 4721,
      "Sciento": 4722,
      "Sup": 4723,
      "border": 4724,
      "fol": 4725,
      "ka": 4726,
      "wid": 4727,
      "ening": 4728,
      "prop": 4729,
      "render": 4730,
      "highly": 4731,
      "continue": 4732,
      "Liber": 4733,
      "collection": 4734,
      "initial": 4735,
      "types": 4736,
      "typically": 4737,
      "audience": 4738,
      "Bob": 4739,
      "Cast": 4740,
      "Green": 4741,
      "kan": 4742,
      "err": 4743,
      "confir": 4744,
      "apo": 4745,
      "eye": 4746,
      "murder": 4747,
      "Rob": 4748,
      "pick": 4749,
      "ert": 4750,
      "Three": 4751,
      "words": 4752,
      "spring": 4753,
      "Alex": 4754,
      "Catholic": 4755,
      "Taylor": 4756,
      "Emp": 4757,
      "VD": 4758,
      "rated": 4759,
      "aspect": 4760,
      "estival": 4761,
      "ordin": 4762,
      "recover": 4763,
      "centre": 4764,
      "phen": 4765,
      "pedo": 4766,
      "rights": 4767,
      "advant": 4768,
      "negative": 4769,
      "Department": 4770,
      "Di": 4771,
      "Minn": 4772,
      "Tru": 4773,
      "dro": 4774,
      "mes": 4775,
      "concert": 4776,
      "umed": 4777,
      "spac": 4778,
      "blue": 4779,
      "annel": 4780,
      "education": 4781,
      "document": 4782,
      "41": 4783,
      "IS": 4784,
      "Jam": 4785,
      "Ob": 4786,
      "ugu": 4787,
      "height": 4788,
      "die": 4789,
      "vention": 4790,
      "middle": 4791,
      "nucle": 4792,
      "separate": 4793,
      "Ram": 4794,
      "bury": 4795,
      "lav": 4796,
      "thers": 4797,
      "quality": 4798,
      "award": 4799,
      "color": 4800,
      "rule": 4801,
      "tainment": 4802,
      "designated": 4803,
      "onym": 4804,
      "attempts": 4805,
      "historical": 4806,
      "Corps": 4807,
      "target": 4808,
      "Miami": 4809,
      "torpedo": 4810,
      "Somerset": 4811,
      "ceremon": 4812,
      "bid": 4813,
      "ec": 4814,
      "hour": 4815,
      "rich": 4816,
      "heart": 4817,
      "withdraw": 4818,
      "otes": 4819,
      "illery": 4820,
      "orders": 4821,
      "eval": 4822,
      "bles": 4823,
      "Common": 4824,
      "drum": 4825,
      "extreme": 4826,
      "mountain": 4827,
      "accepted": 4828,
      "evolution": 4829,
      "Italian": 4830,
      "Scotland": 4831,
      "DVD": 4832,
      "cis": 4833,
      "candid": 4834,
      "mouth": 4835,
      "pil": 4836,
      "paper": 4837,
      "repe": 4838,
      "reign": 4839,
      "resh": 4840,
      "ifa": 4841,
      "chester": 4842,
      "vocal": 4843,
      "concluded": 4844,
      "situation": 4845,
      "Galve": 4846,
      "Of": 4847,
      "Six": 4848,
      "wear": 4849,
      "owned": 4850,
      "ousand": 4851,
      "spread": 4852,
      "web": 4853,
      "1991": 4854,
      "singer": 4855,
      "value": 4856,
      "advan": 4857,
      "ribution": 4858,
      "begins": 4859,
      "contrast": 4860,
      "Empire": 4861,
      "gas": 4862,
      "gain": 4863,
      "rout": 4864,
      "ía": 4865,
      "stating": 4866,
      "vised": 4867,
      "sons": 4868,
      "background": 4869,
      "Sovi": 4870,
      "Domitian": 4871,
      "Several": 4872,
      "sylvan": 4873,
      "34": 4874,
      "55": 4875,
      "Gi": 4876,
      "Post": 4877,
      "jun": 4878,
      "morning": 4879,
      "enon": 4880,
      "ender": 4881,
      "aired": 4882,
      "ieve": 4883,
      "founded": 4884,
      "tower": 4885,
      "Colon": 4886,
      "organis": 4887,
      "hands": 4888,
      "Anderson": 4889,
      "widely": 4890,
      "alymp": 4891,
      "Major": 4892,
      "Highway": 4893,
      "silver": 4894,
      "freeway": 4895,
      "Queen": 4896,
      "strength": 4897,
      "Angeles": 4898,
      "Galveston": 4899,
      "97": 4900,
      "Museum": 4901,
      "dition": 4902,
      "peace": 4903,
      "actually": 4904,
      "wealth": 4905,
      "Arm": 4906,
      "genus": 4907,
      "Paralymp": 4908,
      "stitution": 4909,
      "Football": 4910,
      "Lan": 4911,
      "Live": 4912,
      "ban": 4913,
      "armed": 4914,
      "ills": 4915,
      "anta": 4916,
      "sole": 4917,
      "missed": 4918,
      "Francis": 4919,
      "Produ": 4920,
      "gods": 4921,
      "argued": 4922,
      "ricket": 4923,
      "revealed": 4924,
      "sembly": 4925,
      "Lew": 4926,
      "Society": 4927,
      "Villa": 4928,
      "corn": 4929,
      "lock": 4930,
      "vation": 4931,
      "today": 4932,
      "China": 4933,
      "recent": 4934,
      "viewers": 4935,
      "150": 4936,
      "Because": 4937,
      "leader": 4938,
      "legisl": 4939,
      "humans": 4940,
      "Haifa": 4941,
      "Scientology": 4942,
      "96": 4943,
      "DNA": 4944,
      "Tenn": 4945,
      "nan": 4946,
      "nom": 4947,
      "ingu": 4948,
      "acher": 4949,
      "adium": 4950,
      "vehic": 4951,
      "deck": 4952,
      "contemporary": 4953,
      "oph": 4954,
      "true": 4955,
      "phy": 4956,
      "companies": 4957,
      "Middle": 4958,
      "oo": 4959,
      "ustr": 4960,
      "thir": 4961,
      "rot": 4962,
      "sec": 4963,
      "Chris": 4964,
      "1994": 4965,
      "featuring": 4966,
      "Edward": 4967,
      "divided": 4968,
      "growth": 4969,
      "figures": 4970,
      "Missoula": 4971,
      "bacteria": 4972,
      "maximum": 4973,
      "Lady": 4974,
      "Som": 4975,
      "Way": 4976,
      "drew": 4977,
      "pun": 4978,
      "iron": 4979,
      "mole": 4980,
      "contact": 4981,
      "seasons": 4982,
      "Group": 4983,
      "extensive": 4984,
      "Blue": 4985,
      "tellig": 4986,
      "sylvania": 4987,
      "mile": 4988,
      "zer": 4989,
      "plant": 4990,
      "affected": 4991,
      "calling": 4992,
      "showed": 4993,
      "practice": 4994,
      "Carolina": 4995,
      "incorpor": 4996,
      "smo": 4997,
      "sense": 4998,
      "environment": 4999,
      "ications": 5000,
      "1920": 5001,
      "proved": 5002,
      "lip": 5003,
      "princ": 5004,
      "ranch": 5005,
      "continues": 5006,
      "asket": 5007,
      "behav": 5008,
      "represented": 5009,
      "trees": 5010,
      "Senate": 5011,
      "commissioned": 5012,
      "Otto": 5013,
      "Der": 5014,
      "Men": 5015,
      "Open": 5016,
      "Pen": 5017,
      "nis": 5018,
      "Infantry": 5019,
      "managed": 5020,
      "science": 5021,
      "portun": 5022,
      "Through": 5023,
      "titled": 5024,
      "Ill": 5025,
      "Jane": 5026,
      "Liver": 5027,
      "dog": 5028,
      "eth": 5029,
      "rhy": 5030,
      "esota": 5031,
      "ada": 5032,
      "urt": 5033,
      "umn": 5034,
      "iva": 5035,
      "eves": 5036,
      "metal": 5037,
      "sixth": 5038,
      "Christmas": 5039,
      "faced": 5040,
      "studies": 5041,
      "machine": 5042,
      "Dougl": 5043,
      "adopted": 5044,
      "Minnesota": 5045,
      "carri": 5046,
      "eigh": 5047,
      "ih": 5048,
      "older": 5049,
      "mob": 5050,
      "boat": 5051,
      "preser": 5052,
      "element": 5053,
      "direction": 5054,
      "headquarters": 5055,
      "Paris": 5056,
      "Moore": 5057,
      "cases": 5058,
      "advance": 5059,
      "arent": 5060,
      "declared": 5061,
      "ceeded": 5062,
      "heavily": 5063,
      "Tropical": 5064,
      "bul": 5065,
      "pack": 5066,
      "paid": 5067,
      "ta": 5068,
      "wound": 5069,
      "secret": 5070,
      "Force": 5071,
      "powerful": 5072,
      "Montana": 5073,
      "shift": 5074,
      "Michel": 5075,
      "76": 5076,
      "Ice": 5077,
      "Mat": 5078,
      "sales": 5079,
      "sides": 5080,
      "restor": 5081,
      "energy": 5082,
      "alty": 5083,
      "utch": 5084,
      "branch": 5085,
      "athan": 5086,
      "mainly": 5087,
      "obtain": 5088,
      "minim": 5089,
      "transl": 5090,
      "resulting": 5091,
      "commander": 5092,
      "Histor": 5093,
      "nes": 5094,
      "wave": 5095,
      "atives": 5096,
      "ements": 5097,
      "bery": 5098,
      "spot": 5099,
      "attended": 5100,
      "county": 5101,
      "Week": 5102,
      "cells": 5103,
      "combat": 5104,
      "sexual": 5105,
      "peaked": 5106,
      "Records": 5107,
      "Liverpool": 5108,
      "65": 5109,
      "Civil": 5110,
      "Govern": 5111,
      "Nix": 5112,
      "Tele": 5113,
      "batter": 5114,
      "blood": 5115,
      "ancient": 5116,
      "atops": 5117,
      "ental": 5118,
      "opportun": 5119,
      "scoring": 5120,
      "1941": 5121,
      "begin": 5122,
      "motion": 5123,
      "completely": 5124,
      "vocals": 5125,
      "Pennsylvania": 5126,
      "Olympic": 5127,
      "slightly": 5128,
      "Douglas": 5129,
      "Dire": 5130,
      "cat": 5131,
      "var": 5132,
      "revol": 5133,
      "roles": 5134,
      "residents": 5135,
      "opin": 5136,
      "shap": 5137,
      "contain": 5138,
      "offer": 5139,
      "weaken": 5140,
      "icks": 5141,
      "efforts": 5142,
      "ledge": 5143,
      "follows": 5144,
      "describes": 5145,
      "physical": 5146,
      "necessary": 5147,
      "demonstr": 5148,
      "newspaper": 5149,
      "Are": 5150,
      "Dun": 5151,
      "sac": 5152,
      "án": 5153,
      "reception": 5154,
      "arms": 5155,
      "oft": 5156,
      "sust": 5157,
      "artic": 5158,
      "Though": 5159,
      "shell": 5160,
      "ysis": 5161,
      "influenced": 5162,
      "soundtrack": 5163,
      "skyscrap": 5164,
      "journal": 5165,
      "relatively": 5166,
      "financial": 5167,
      "Ari": 5168,
      "Kent": 5169,
      "Ocean": 5170,
      "cad": 5171,
      "sper": 5172,
      "ón": 5173,
      "theory": 5174,
      "rey": 5175,
      "esh": 5176,
      "tru": 5177,
      "expressed": 5178,
      "berg": 5179,
      "serve": 5180,
      "weap": 5181,
      "Alice": 5182,
      "strugg": 5183,
      "ski": 5184,
      "burg": 5185,
      "spirit": 5186,
      "measure": 5187,
      "focus": 5188,
      "Kenn": 5189,
      "dut": 5190,
      "kept": 5191,
      "patter": 5192,
      "push": 5193,
      "zed": 5194,
      "restr": 5195,
      "iding": 5196,
      "scale": 5197,
      "struck": 5198,
      "alongside": 5199,
      "Like": 5200,
      "matches": 5201,
      "nuclear": 5202,
      "Southern": 5203,
      "symbol": 5204,
      "Four": 5205,
      "Sil": 5206,
      "fiction": 5207,
      "ses": 5208,
      "thousand": 5209,
      "alone": 5210,
      "toward": 5211,
      "chos": 5212,
      "imag": 5213,
      "concent": 5214,
      "ager": 5215,
      "excl": 5216,
      "identified": 5217,
      "apparent": 5218,
      "looking": 5219,
      "animals": 5220,
      "transferred": 5221,
      "Ross": 5222,
      "Pan": 5223,
      "becomes": 5224,
      "Ann": 5225,
      "visions": 5226,
      "1990": 5227,
      "effort": 5228,
      "doing": 5229,
      "Secret": 5230,
      "letter": 5231,
      "holds": 5232,
      "twenty": 5233,
      "Bet": 5234,
      "Rail": 5235,
      "eu": 5236,
      "pup": 5237,
      "asc": 5238,
      "propos": 5239,
      "shop": 5240,
      "mechan": 5241,
      "charge": 5242,
      "rug": 5243,
      "Conference": 5244,
      "1987": 5245,
      "combined": 5246,
      "narrow": 5247,
      "Captain": 5248,
      "Honor": 5249,
      "Nixon": 5250,
      "SP": 5251,
      "wild": 5252,
      "lying": 5253,
      "resol": 5254,
      "opposed": 5255,
      "poly": 5256,
      "avoid": 5257,
      "prise": 5258,
      "condition": 5259,
      "Demo": 5260,
      "1980s": 5261,
      "proteins": 5262,
      "Book": 5263,
      "occasion": 5264,
      "85": 5265,
      "Dj": 5266,
      "mind": 5267,
      "uzz": 5268,
      "your": 5269,
      "det": 5270,
      "Storm": 5271,
      "awa": 5272,
      "18th": 5273,
      "content": 5274,
      "phil": 5275,
      "visual": 5276,
      "ologist": 5277,
      "officer": 5278,
      "deliver": 5279,
      "Vietnam": 5280,
      "Baby": 5281,
      "girl": 5282,
      "NBA": 5283,
      "Up": 5284,
      "bat": 5285,
      "thr": 5286,
      "edition": 5287,
      "ola": 5288,
      "resist": 5289,
      "umber": 5290,
      "perman": 5291,
      "cannot": 5292,
      "1940": 5293,
      "letters": 5294,
      "organized": 5295,
      "battles": 5296,
      "broke": 5297,
      "Tod": 5298,
      "pul": 5299,
      "mentioned": 5300,
      "Alkan": 5301,
      "ponent": 5302,
      "northwest": 5303,
      "sites": 5304,
      "property": 5305,
      "Garc": 5306,
      "7th": 5307,
      "Ven": 5308,
      "cities": 5309,
      "matter": 5310,
      "chair": 5311,
      "premi": 5312,
      "1970": 5313,
      "protein": 5314,
      "Manchester": 5315,
      "teenth": 5316,
      "travel": 5317,
      "possibly": 5318,
      "chosen": 5319,
      "Ben": 5320,
      "Little": 5321,
      "Mass": 5322,
      "bour": 5323,
      "mess": 5324,
      "nast": 5325,
      "ote": 5326,
      "eds": 5327,
      "iled": 5328,
      "dete": 5329,
      "versions": 5330,
      "Engine": 5331,
      "anks": 5332,
      "officials": 5333,
      "structures": 5334,
      "honor": 5335,
      "potential": 5336,
      "Def": 5337,
      "PC": 5338,
      "Pho": 5339,
      "Tint": 5340,
      "core": 5341,
      "federal": 5342,
      "asi": 5343,
      "extra": 5344,
      "mond": 5345,
      "specim": 5346,
      "tried": 5347,
      "Medal": 5348,
      "activities": 5349,
      "economic": 5350,
      "advantage": 5351,
      "600": 5352,
      "AI": 5353,
      "Fow": 5354,
      "Wel": 5355,
      "tall": 5356,
      "seek": 5357,
      "artillery": 5358,
      "emphas": 5359,
      "perial": 5360,
      "visited": 5361,
      "views": 5362,
      "placement": 5363,
      "officially": 5364,
      "broken": 5365,
      "authority": 5366,
      "primarily": 5367,
      "sources": 5368,
      "Joseph": 5369,
      "Tintin": 5370,
      "64": 5371,
      "9th": 5372,
      "Bol": 5373,
      "Rol": 5374,
      "Writ": 5375,
      "cies": 5376,
      "creation": 5377,
      "News": 5378,
      "suppl": 5379,
      "Andrew": 5380,
      "individuals": 5381,
      "relief": 5382,
      "Ernest": 5383,
      "couple": 5384,
      "achieved": 5385,
      "Bon": 5386,
      "Dam": 5387,
      "Mah": 5388,
      "Night": 5389,
      "kg": 5390,
      "ufact": 5391,
      "recomm": 5392,
      "conver": 5393,
      "otional": 5394,
      "movie": 5395,
      "ems": 5396,
      "actors": 5397,
      "promoted": 5398,
      "says": 5399,
      "multiple": 5400,
      "Mosley": 5401,
      "Soviet": 5402,
      "Government": 5403,
      "Greg": 5404,
      "Home": 5405,
      "Lar": 5406,
      "Sky": 5407,
      "lb": 5408,
      "laid": 5409,
      "piano": 5410,
      "rating": 5411,
      "encour": 5412,
      "itan": 5413,
      "university": 5414,
      "plat": 5415,
      "uten": 5416,
      "model": 5417,
      "shape": 5418,
      "Indu": 5419,
      "exhib": 5420,
      "weather": 5421,
      "Conf": 5422,
      "street": 5423,
      "problem": 5424,
      "Busch": 5425,
      "Summer": 5426,
      "Ve": 5427,
      "brown": 5428,
      "rev": 5429,
      "unique": 5430,
      "shore": 5431,
      "twice": 5432,
      "ached": 5433,
      "offensive": 5434,
      "captain": 5435,
      "famous": 5436,
      "simply": 5437,
      "criticized": 5438,
      "recognized": 5439,
      "Lewis": 5440,
      "Cle": 5441,
      "theless": 5442,
      "aling": 5443,
      "adel": 5444,
      "seg": 5445,
      "illustr": 5446,
      "1988": 5447,
      "reports": 5448,
      "Meyer": 5449,
      "graphic": 5450,
      "Fowler": 5451,
      "Mul": 5452,
      "iced": 5453,
      "advert": 5454,
      "adapt": 5455,
      "igg": 5456,
      "unknown": 5457,
      "umes": 5458,
      "artists": 5459,
      "exped": 5460,
      "workers": 5461,
      "producers": 5462,
      "causing": 5463,
      "results": 5464,
      "Clark": 5465,
      "grew": 5466,
      "battalion": 5467,
      "cultural": 5468,
      "currently": 5469,
      "56": 5470,
      "Greek": 5471,
      "Max": 5472,
      "Nations": 5473,
      "Prote": 5474,
      "gi": 5475,
      "haps": 5476,
      "icient": 5477,
      "dif": 5478,
      "boats": 5479,
      "Commun": 5480,
      "1985": 5481,
      "Bridge": 5482,
      "places": 5483,
      "require": 5484,
      "capture": 5485,
      "connected": 5486,
      "independent": 5487,
      "District": 5488,
      "conflict": 5489,
      "asketball": 5490,
      "Hy": 5491,
      "Ret": 5492,
      "dress": 5493,
      "pal": 5494,
      "va": 5495,
      "perfect": 5496,
      "iana": 5497,
      "albums": 5498,
      "defense": 5499,
      "shortly": 5500,
      "explained": 5501,
      "basis": 5502,
      "projects": 5503,
      "pursu": 5504,
      "gradu": 5505,
      "Bul": 5506,
      "enemy": 5507,
      "usual": 5508,
      "etic": 5509,
      "estic": 5510,
      "essa": 5511,
      "grass": 5512,
      "granted": 5513,
      "Head": 5514,
      "rence": 5515,
      "speak": 5516,
      "Once": 5517,
      "roads": 5518,
      "domin": 5519,
      "reaching": 5520,
      "quez": 5521,
      "Valley": 5522,
      "defined": 5523,
      "homes": 5524,
      "osaurus": 5525,
      "determined": 5526,
      "BBC": 5527,
      "Eli": 5528,
      "Jones": 5529,
      "Sat": 5530,
      "sn": 5531,
      "society": 5532,
      "inth": 5533,
      "ont": 5534,
      "stock": 5535,
      "beer": 5536,
      "Commission": 5537,
      "door": 5538,
      "mium": 5539,
      "leaders": 5540,
      "passing": 5541,
      "ponents": 5542,
      "initi": 5543,
      "earliest": 5544,
      "dedicated": 5545,
      "condoms": 5546,
      "surrounding": 5547,
      "powers": 5548,
      "benef": 5549,
      "Down": 5550,
      "Pit": 5551,
      "ár": 5552,
      "alleg": 5553,
      "icts": 5554,
      "agan": 5555,
      "assault": 5556,
      "Albert": 5557,
      "helm": 5558,
      "plement": 5559,
      "supporting": 5560,
      "Class": 5561,
      "1939": 5562,
      "Addition": 5563,
      "collabor": 5564,
      "frequently": 5565,
      "literature": 5566,
      "moment": 5567,
      "abandoned": 5568,
      "Fleet": 5569,
      "folk": 5570,
      "Ottoman": 5571,
      "García": 5572,
      "Den": 5573,
      "Far": 5574,
      "Nico": 5575,
      "gained": 5576,
      "sought": 5577,
      "intellig": 5578,
      "rejected": 5579,
      "comedy": 5580,
      "lives": 5581,
      "astic": 5582,
      "Child": 5583,
      "anny": 5584,
      "1942": 5585,
      "trial": 5586,
      "prominent": 5587,
      "Mean": 5588,
      "casual": 5589,
      "successfully": 5590,
      "multi": 5591,
      "beyond": 5592,
      "Ly": 5593,
      "More": 5594,
      "hang": 5595,
      "ji": 5596,
      "championship": 5597,
      "Argent": 5598,
      "normal": 5599,
      "Reception": 5600,
      "vessel": 5601,
      "cathedral": 5602,
      "titles": 5603,
      "Williams": 5604,
      "growing": 5605,
      "urban": 5606,
      "athletes": 5607,
      "Burn": 5608,
      "Gir": 5609,
      "stood": 5610,
      "else": 5611,
      "aba": 5612,
      "ounger": 5613,
      "rance": 5614,
      "gene": 5615,
      "themes": 5616,
      "singles": 5617,
      "Short": 5618,
      "Before": 5619,
      "1960s": 5620,
      "claims": 5621,
      "Spain": 5622,
      "southeast": 5623,
      "mounted": 5624,
      "rainfall": 5625,
      "flooding": 5626,
      "pitched": 5627,
      "53": 5628,
      "Jour": 5629,
      "ares": 5630,
      "bility": 5631,
      "cit": 5632,
      "infantry": 5633,
      "dian": 5634,
      "manufact": 5635,
      "loy": 5636,
      "regarded": 5637,
      "retired": 5638,
      "thens": 5639,
      "seconds": 5640,
      "address": 5641,
      "passes": 5642,
      "simple": 5643,
      "expans": 5644,
      "animal": 5645,
      "schedul": 5646,
      "Bre": 5647,
      "Bost": 5648,
      "Fred": 5649,
      "Young": 5650,
      "bud": 5651,
      "gam": 5652,
      "yellow": 5653,
      "ora": 5654,
      "belong": 5655,
      "consecut": 5656,
      "oti": 5657,
      "actress": 5658,
      "achieve": 5659,
      "sphere": 5660,
      "gency": 5661,
      "regions": 5662,
      "medical": 5663,
      "populations": 5664,
      "1944": 5665,
      "returning": 5666,
      "Scully": 5667,
      "System": 5668,
      "Bellaire": 5669,
      "Cre": 5670,
      "Cra": 5671,
      "Each": 5672,
      "Fam": 5673,
      "Kr": 5674,
      "Ox": 5675,
      "Rh": 5676,
      "rise": 5677,
      "repair": 5678,
      "ura": 5679,
      "ria": 5680,
      "aust": 5681,
      "awards": 5682,
      "ansas": 5683,
      "genes": 5684,
      "hospital": 5685,
      "Holly": 5686,
      "flying": 5687,
      "increasingly": 5688,
      "Illino": 5689,
      "5th": 5690,
      "Gard": 5691,
      "Jes": 5692,
      "Már": 5693,
      "glo": 5694,
      "oil": 5695,
      "rine": 5696,
      "asure": 5697,
      "rif": 5698,
      "udd": 5699,
      "losing": 5700,
      "guest": 5701,
      "foreign": 5702,
      "bute": 5703,
      "decor": 5704,
      "1964": 5705,
      "systems": 5706,
      "join": 5707,
      "commonly": 5708,
      "sports": 5709,
      "authorities": 5710,
      "walls": 5711,
      "consisted": 5712,
      "susp": 5713,
      "Background": 5714,
      "ultimately": 5715,
      "Márquez": 5716,
      "bark": 5717,
      "hed": 5718,
      "mast": 5719,
      "ulpt": 5720,
      "containing": 5721,
      "azz": 5722,
      "buried": 5723,
      "Eastern": 5724,
      "ategory": 5725,
      "intensity": 5726,
      "consecutive": 5727,
      "120": 5728,
      "Kh": 5729,
      "Lin": 5730,
      "Mu": 5731,
      "Never": 5732,
      "Ru": 5733,
      "Rome": 5734,
      "Simp": 5735,
      "Yo": 5736,
      "ole": 5737,
      "advent": 5738,
      "imin": 5739,
      "ocated": 5740,
      "attend": 5741,
      "weak": 5742,
      "Commit": 5743,
      "innings": 5744,
      "operated": 5745,
      "breeding": 5746,
      "Form": 5747,
      "believe": 5748,
      "suggests": 5749,
      "virus": 5750,
      "Minister": 5751,
      "dropped": 5752,
      "touchdown": 5753,
      "faith": 5754,
      "51": 5755,
      "Cy": 5756,
      "Ele": 5757,
      "Ka": 5758,
      "PA": 5759,
      "Pop": 5760,
      "Sub": 5761,
      "Upon": 5762,
      "ahead": 5763,
      "lap": 5764,
      "share": 5765,
      "Independ": 5766,
      "Institute": 5767,
      "Thunder": 5768,
      "speech": 5769,
      "ideas": 5770,
      "singing": 5771,
      "1989": 5772,
      "1960": 5773,
      "royal": 5774,
      "ika": 5775,
      "reference": 5776,
      "industri": 5777,
      "invas": 5778,
      "nominated": 5779,
      "Will": 5780,
      "dates": 5781,
      "rear": 5782,
      "aman": 5783,
      "conserv": 5784,
      "ulate": 5785,
      "oppos": 5786,
      "astron": 5787,
      "herself": 5788,
      "prey": 5789,
      "orses": 5790,
      "1984": 5791,
      "Isa": 5792,
      "controlled": 5793,
      "killing": 5794,
      "correspond": 5795,
      "Origin": 5796,
      "maintained": 5797,
      "Premi": 5798,
      "victim": 5799,
      "straight": 5800,
      "Pet": 5801,
      "catch": 5802,
      "iqu": 5803,
      "knot": 5804,
      "lic": 5805,
      "onom": 5806,
      "beaut": 5807,
      "comic": 5808,
      "sculpt": 5809,
      "recently": 5810,
      "rane": 5811,
      "phia": 5812,
      "therefore": 5813,
      "Work": 5814,
      "volume": 5815,
      "incident": 5816,
      "belief": 5817,
      "Philip": 5818,
      "fruit": 5819,
      "analysis": 5820,
      "wounded": 5821,
      "utenant": 5822,
      "adelphia": 5823,
      "Boston": 5824,
      "CA": 5825,
      "Hun": 5826,
      "Line": 5827,
      "Public": 5828,
      "cust": 5829,
      "labor": 5830,
      "mut": 5831,
      "paint": 5832,
      "yle": 5833,
      "ilies": 5834,
      "chor": 5835,
      "images": 5836,
      "aine": 5837,
      "serves": 5838,
      "contained": 5839,
      "council": 5840,
      "solo": 5841,
      "historian": 5842,
      "eyes": 5843,
      "Airport": 5844,
      "subsequent": 5845,
      "confirmed": 5846,
      "Gro": 5847,
      "hunt": 5848,
      "sand": 5849,
      "wit": 5850,
      "stations": 5851,
      "acu": 5852,
      "chose": 5853,
      "neut": 5854,
      "fired": 5855,
      "auto": 5856,
      "compar": 5857,
      "Italy": 5858,
      "athus": 5859,
      "highlight": 5860,
      "Develop": 5861,
      "inkel": 5862,
      "allows": 5863,
      "pieces": 5864,
      "Braa": 5865,
      "Scottish": 5866,
      "Entertainment": 5867,
      "onymous": 5868,
      "87": 5869,
      "Naz": 5870,
      "dan": 5871,
      "jack": 5872,
      "master": 5873,
      "ni": 5874,
      "rig": 5875,
      "sun": 5876,
      "sip": 5877,
      "xenon": 5878,
      "inem": 5879,
      "isol": 5880,
      "heard": 5881,
      "union": 5882,
      "abo": 5883,
      "trail": 5884,
      "acts": 5885,
      "disp": 5886,
      "newly": 5887,
      "paralle": 5888,
      "receive": 5889,
      "Life": 5890,
      "student": 5891,
      "Smart": 5892,
      "Townsend": 5893,
      "Mike": 5894,
      "employed": 5895,
      "occupied": 5896,
      "advanced": 5897,
      "shaped": 5898,
      "Avenue": 5899,
      "Jon": 5900,
      "Jup": 5901,
      "Nes": 5902,
      "Ry": 5903,
      "Vide": 5904,
      "fat": 5905,
      "pict": 5906,
      "rative": 5907,
      "wen": 5908,
      "editor": 5909,
      "oul": 5910,
      "agric": 5911,
      "answ": 5912,
      "End": 5913,
      "1990s": 5914,
      "organization": 5915,
      "castle": 5916,
      "ifying": 5917,
      "committee": 5918,
      "Further": 5919,
      "shooting": 5920,
      "6th": 5921,
      "Ath": 5922,
      "Bi": 5923,
      "Dest": 5924,
      "Fox": 5925,
      "Si": 5926,
      "Tim": 5927,
      "hur": 5928,
      "outer": 5929,
      "modif": 5930,
      "akapo": 5931,
      "outs": 5932,
      "evil": 5933,
      "drama": 5934,
      "Americans": 5935,
      "1972": 5936,
      "Philadelphia": 5937,
      "entirely": 5938,
      "negoti": 5939,
      "seems": 5940,
      "phase": 5941,
      "participated": 5942,
      "website": 5943,
      "agricult": 5944,
      "79": 5945,
      "Card": 5946,
      "Gil": 5947,
      "Kong": 5948,
      "Mur": 5949,
      "SR": 5950,
      "cos": 5951,
      "governor": 5952,
      "ii": 5953,
      "atures": 5954,
      "deg": 5955,
      "1918": 5956,
      "extr": 5957,
      "Stone": 5958,
      "brigade": 5959,
      "raid": 5960,
      "depth": 5961,
      "fields": 5962,
      "prompt": 5963,
      "improved": 5964,
      "senior": 5965,
      "Rosebery": 5966,
      "filled": 5967,
      "Victoria": 5968,
      "equipment": 5969,
      "Kennedy": 5970,
      "Illinois": 5971,
      "Finkel": 5972,
      "HMS": 5973,
      "Mario": 5974,
      "cricket": 5975,
      "chance": 5976,
      "deploy": 5977,
      "interchange": 5978,
      "Only": 5979,
      "defensive": 5980,
      "glass": 5981,
      "glades": 5982,
      "management": 5983,
      "micro": 5984,
      "Walpole": 5985,
      "selling": 5986,
      "security": 5987,
      "settlement": 5988,
      "Meyerbeer": 5989,
      "Nicole": 5990,
      "Finkelstein": 5991,
      "700": 5992,
      "Bir": 5993,
      "Eich": 5994,
      "Even": 5995,
      "Kore": 5996,
      "Mel": 5997,
      "Mort": 5998,
      "Tu": 5999,
      "Tessa": 6000,
      "lane": 6001,
      "uan": 6002,
      "inus": 6003,
      "resem": 6004,
      "entrance": 6005,
      "grav": 6006,
      "finish": 6007,
      "coal": 6008,
      "Shiva": 6009,
      "serving": 6010,
      "distingu": 6011,
      "1970s": 6012,
      "frame": 6013,
      "ampionships": 6014,
      "females": 6015,
      "experienced": 6016,
      "Emperor": 6017,
      "challeng": 6018,
      "nasty": 6019,
      "Nat": 6020,
      "Yue": 6021,
      "cus": 6022,
      "cited": 6023,
      "eas": 6024,
      "fresh": 6025,
      "kes": 6026,
      "mad": 6027,
      "ya": 6028,
      "train": 6029,
      "pty": 6030,
      "prefer": 6031,
      "izes": 6032,
      "news": 6033,
      "steam": 6034,
      "domestic": 6035,
      "Wilhelm": 6036,
      "frag": 6037,
      "seventh": 6038,
      "agreement": 6039,
      "PlayStation": 6040,
      "excav": 6041,
      "policy": 6042,
      "Meanwhile": 6043,
      "budget": 6044,
      "Eichmann": 6045,
      "Due": 6046,
      "WA": 6047,
      "nav": 6048,
      "sight": 6049,
      "otic": 6050,
      "ivity": 6051,
      "desc": 6052,
      "1968": 6053,
      "families": 6054,
      "km2": 6055,
      "defence": 6056,
      "apping": 6057,
      "closely": 6058,
      "drive": 6059,
      "Palest": 6060,
      "knowledge": 6061,
      "temperature": 6062,
      "Horse": 6063,
      "bottom": 6064,
      "Democr": 6065,
      "Fer": 6066,
      "Field": 6067,
      "Good": 6068,
      "Lis": 6069,
      "Mog": 6070,
      "Rel": 6071,
      "Ul": 6072,
      "crop": 6073,
      "mical": 6074,
      "museum": 6075,
      "rush": 6076,
      "save": 6077,
      "ying": 6078,
      "iments": 6079,
      "emic": 6080,
      "perhaps": 6081,
      "udes": 6082,
      "note": 6083,
      "flank": 6084,
      "supply": 6085,
      "district": 6086,
      "classified": 6087,
      "favour": 6088,
      "prepared": 6089,
      "Everglades": 6090,
      "aspects": 6091,
      "Committee": 6092,
      "Jupiter": 6093,
      "Bas": 6094,
      "Bros": 6095,
      "Op": 6096,
      "greg": 6097,
      "sort": 6098,
      "tree": 6099,
      "uct": 6100,
      "wise": 6101,
      "anes": 6102,
      "recon": 6103,
      "repl": 6104,
      "arrest": 6105,
      "semi": 6106,
      "rival": 6107,
      "twel": 6108,
      "intend": 6109,
      "creating": 6110,
      "draft": 6111,
      "cript": 6112,
      "1947": 6113,
      "trip": 6114,
      "Mohave": 6115,
      "tells": 6116,
      "debuted": 6117,
      "Duke": 6118,
      "learned": 6119,
      "Swed": 6120,
      "poetry": 6121,
      "arrang": 6122,
      "Oxford": 6123,
      "Braathens": 6124,
      "Bor": 6125,
      "ERA": 6126,
      "Gre": 6127,
      "Hard": 6128,
      "Oma": 6129,
      "Rog": 6130,
      "Ti": 6131,
      "fair": 6132,
      "anth": 6133,
      "onna": 6134,
      "aded": 6135,
      "beach": 6136,
      "tex": 6137,
      "Album": 6138,
      "filmed": 6139,
      "rub": 6140,
      "160": 6141,
      "defend": 6142,
      "green": 6143,
      "reflect": 6144,
      "effective": 6145,
      "strike": 6146,
      "collected": 6147,
      "objects": 6148,
      "executive": 6149,
      "Studios": 6150,
      "casualties": 6151,
      "Video": 6152,
      "69": 6153,
      "800": 6154,
      "Fish": 6155,
      "Festival": 6156,
      "Hal": 6157,
      "Horn": 6158,
      "Jud": 6159,
      "Kes": 6160,
      "Press": 6161,
      "egg": 6162,
      "tun": 6163,
      "wart": 6164,
      "younger": 6165,
      "encounter": 6166,
      "iti": 6167,
      "ift": 6168,
      "1981": 6169,
      "description": 6170,
      "sequences": 6171,
      "Coast": 6172,
      "finds": 6173,
      "finding": 6174,
      "occurs": 6175,
      "involve": 6176,
      "declined": 6177,
      "Portugu": 6178,
      "treatment": 6179,
      "launch": 6180,
      "calcul": 6181,
      "Martin": 6182,
      "repeated": 6183,
      "philos": 6184,
      "Phoen": 6185,
      "degree": 6186,
      "89": 6187,
      "Lie": 6188,
      "Watch": 6189,
      "gather": 6190,
      "iro": 6191,
      "ners": 6192,
      "rab": 6193,
      "remo": 6194,
      "orb": 6195,
      "accompan": 6196,
      "rie": 6197,
      "aste": 6198,
      "acted": 6199,
      "iff": 6200,
      "contributed": 6201,
      "presents": 6202,
      "centuries": 6203,
      "What": 6204,
      "Columb": 6205,
      "starts": 6206,
      "publication": 6207,
      "risk": 6208,
      "borough": 6209,
      "Apple": 6210,
      "failure": 6211,
      "1950s": 6212,
      "expanded": 6213,
      "Forest": 6214,
      "Portuguese": 6215,
      "8th": 6216,
      "Hell": 6217,
      "Vill": 6218,
      "aer": 6219,
      "bin": 6220,
      "bishop": 6221,
      "data": 6222,
      "tu": 6223,
      "thor": 6224,
      "1914": 6225,
      "scar": 6226,
      "timore": 6227,
      "roughly": 6228,
      "producing": 6229,
      "medal": 6230,
      "didn": 6231,
      "marks": 6232,
      "gives": 6233,
      "faces": 6234,
      "Team": 6235,
      "drawn": 6236,
      "existing": 6237,
      "injury": 6238,
      "briefly": 6239,
      "floor": 6240,
      "Welsh": 6241,
      "Premier": 6242,
      "IV": 6243,
      "Pi": 6244,
      "Run": 6245,
      "Sk": 6246,
      "bitt": 6247,
      "hill": 6248,
      "lit": 6249,
      "mate": 6250,
      "thetic": 6251,
      "alls": 6252,
      "odon": 6253,
      "assass": 6254,
      "attle": 6255,
      "dissip": 6256,
      "dram": 6257,
      "heads": 6258,
      "1974": 6259,
      "fellow": 6260,
      "college": 6261,
      "clubs": 6262,
      "significantly": 6263,
      "Among": 6264,
      "Republican": 6265,
      "Jeff": 6266,
      "purchased": 6267,
      "Operation": 6268,
      "scholar": 6269,
      "Radio": 6270,
      "invasion": 6271,
      "Ali": 6272,
      "Governor": 6273,
      "Han": 6274,
      "Kir": 6275,
      "Vol": 6276,
      "males": 6277,
      "ati": 6278,
      "Theatre": 6279,
      "imony": 6280,
      "agement": 6281,
      "apers": 6282,
      "1919": 6283,
      "aved": 6284,
      "evin": 6285,
      "guard": 6286,
      "filming": 6287,
      "submar": 6288,
      "mathem": 6289,
      "goes": 6290,
      "Assembly": 6291,
      "adding": 6292,
      "Fey": 6293,
      "Steve": 6294,
      "reasons": 6295,
      "neighbor": 6296,
      "Varan": 6297,
      "sustained": 6298,
      "scheduled": 6299,
      "knots": 6300,
      "Mogad": 6301,
      "130": 6302,
      "CE": 6303,
      "Dar": 6304,
      "TC": 6305,
      "Zhou": 6306,
      "dance": 6307,
      "daily": 6308,
      "horses": 6309,
      "lu": 6310,
      "sail": 6311,
      "tend": 6312,
      "wides": 6313,
      "acad": 6314,
      "sections": 6315,
      "oldest": 6316,
      "unte": 6317,
      "emperor": 6318,
      "notable": 6319,
      "Chap": 6320,
      "firm": 6321,
      "display": 6322,
      "rank": 6323,
      "temple": 6324,
      "issance": 6325,
      "consists": 6326,
      "parliament": 6327,
      "aurus": 6328,
      "popularity": 6329,
      "purpose": 6330,
      "religion": 6331,
      "Daniel": 6332,
      "Bowl": 6333,
      "ceremony": 6334,
      "Athlet": 6335,
      "Final": 6336,
      "Gall": 6337,
      "Gord": 6338,
      "IG": 6339,
      "Oda": 6340,
      "Well": 6341,
      "Your": 6342,
      "fash": 6343,
      "naval": 6344,
      "sens": 6345,
      "table": 6346,
      "anz": 6347,
      "beth": 6348,
      "ctors": 6349,
      "constant": 6350,
      "resc": 6351,
      "1916": 6352,
      "plants": 6353,
      "eman": 6354,
      "ween": 6355,
      "noise": 6356,
      "arrival": 6357,
      "locations": 6358,
      "1945": 6359,
      "clean": 6360,
      "protection": 6361,
      "protected": 6362,
      "importance": 6363,
      "electric": 6364,
      "Country": 6365,
      "Olympics": 6366,
      "Ceres": 6367,
      "Baltimore": 6368,
      "kilomet": 6369,
      "Between": 6370,
      "Varanasi": 6371,
      "61": 6372,
      "Low": 6373,
      "infe": 6374,
      "atom": 6375,
      "atus": 6376,
      "atmo": 6377,
      "isation": 6378,
      "ici": 6379,
      "acres": 6380,
      "los": 6381,
      "writes": 6382,
      "17th": 6383,
      "choice": 6384,
      "porters": 6385,
      "trying": 6386,
      "technology": 6387,
      "commission": 6388,
      "regarding": 6389,
      "vehicles": 6390,
      "expansion": 6391,
      "Nesbitt": 6392,
      "Odaen": 6393,
      "52": 6394,
      "59": 6395,
      "Cub": 6396,
      "Revolution": 6397,
      "Spr": 6398,
      "fix": 6399,
      "hot": 6400,
      "hired": 6401,
      "erc": 6402,
      "prosper": 6403,
      "crete": 6404,
      "myth": 6405,
      "setting": 6406,
      "1980": 6407,
      "hydro": 6408,
      "Gram": 6409,
      "Build": 6410,
      "Eva": 6411,
      "Sarnia": 6412,
      "citiz": 6413,
      "Odaenathus": 6414,
      "BN": 6415,
      "Ban": 6416,
      "hun": 6417,
      "nell": 6418,
      "rates": 6419,
      "tact": 6420,
      "reaction": 6421,
      "stable": 6422,
      "arc": 6423,
      "ingly": 6424,
      "roof": 6425,
      "agent": 6426,
      "composition": 6427,
      "abama": 6428,
      "mod": 6429,
      "quite": 6430,
      "grave": 6431,
      "prising": 6432,
      "landing": 6433,
      "computer": 6434,
      "Alabama": 6435,
      "1982": 6436,
      "worldwide": 6437,
      "scription": 6438,
      "ovic": 6439,
      "DuMont": 6440,
      "billion": 6441,
      "thesis": 6442,
      "rapidly": 6443,
      "Development": 6444,
      "Mogadish": 6445,
      "Gordon": 6446,
      "Cold": 6447,
      "Ken": 6448,
      "Nel": 6449,
      "Wall": 6450,
      "fict": 6451,
      "fought": 6452,
      "uff": 6453,
      "inspir": 6454,
      "alions": 6455,
      "ables": 6456,
      "brid": 6457,
      "pread": 6458,
      "Arts": 6459,
      "Admir": 6460,
      "facilities": 6461,
      "People": 6462,
      "existence": 6463,
      "Mountain": 6464,
      "focused": 6465,
      "acquired": 6466,
      "Wolf": 6467,
      "Production": 6468,
      "Keswick": 6469,
      "72": 6470,
      "BS": 6471,
      "DC": 6472,
      "Fant": 6473,
      "Gib": 6474,
      "Native": 6475,
      "Sus": 6476,
      "cance": 6477,
      "wr": 6478,
      "rose": 6479,
      "ads": 6480,
      "tery": 6481,
      "prot": 6482,
      "afety": 6483,
      "Chief": 6484,
      "landfall": 6485,
      "izations": 6486,
      "cool": 6487,
      "Alli": 6488,
      "angerous": 6489,
      "symp": 6490,
      "headed": 6491,
      "promotion": 6492,
      "deaths": 6493,
      "explos": 6494,
      "Poland": 6495,
      "holding": 6496,
      "strengthen": 6497,
      "1930s": 6498,
      "Adams": 6499,
      "escape": 6500,
      "Today": 6501,
      "Omaha": 6502,
      "Mogadishu": 6503,
      "110": 6504,
      "81": 6505,
      "Bri": 6506,
      "Broad": 6507,
      "Det": 6508,
      "Ray": 6509,
      "Rih": 6510,
      "ju": 6511,
      "kakapo": 6512,
      "von": 6513,
      "vow": 6514,
      "reput": 6515,
      "stret": 6516,
      "ider": 6517,
      "aret": 6518,
      "illo": 6519,
      "gray": 6520,
      "Stan": 6521,
      "awn": 6522,
      "bra": 6523,
      "anything": 6524,
      "colony": 6525,
      "viewed": 6526,
      "publish": 6527,
      "appearing": 6528,
      "decades": 6529,
      "Indiana": 6530,
      "criticism": 6531,
      "cruiser": 6532,
      "Golden": 6533,
      "credited": 6534,
      "Egyptian": 6535,
      "Russian": 6536,
      "cadmium": 6537,
      "Mulder": 6538,
      "Columbia": 6539,
      "Bond": 6540,
      "Fr": 6541,
      "Friend": 6542,
      "Lock": 6543,
      "Mod": 6544,
      "NH": 6545,
      "Oh": 6546,
      "thur": 6547,
      "intr": 6548,
      "stal": 6549,
      "ette": 6550,
      "weet": 6551,
      "Anth": 6552,
      "nothing": 6553,
      "eleven": 6554,
      "secondary": 6555,
      "survey": 6556,
      "1967": 6557,
      "restaur": 6558,
      "lasted": 6559,
      "treaty": 6560,
      "possibility": 6561,
      "Helms": 6562,
      "Temple": 6563,
      "enjoyed": 6564,
      "principal": 6565,
      "Rihanna": 6566,
      "Bart": 6567,
      "FE": 6568,
      "RNA": 6569,
      "gall": 6570,
      "kare": 6571,
      "nur": 6572,
      "nie": 6573,
      "items": 6574,
      "accompl": 6575,
      "why": 6576,
      "iful": 6577,
      "worship": 6578,
      "Also": 6579,
      "calls": 6580,
      "Asia": 6581,
      "16th": 6582,
      "engaged": 6583,
      "1946": 6584,
      "1973": 6585,
      "turns": 6586,
      "programs": 6587,
      "electron": 6588,
      "gradually": 6589,
      "Maryland": 6590,
      "Torres": 6591,
      "Base": 6592,
      "CD": 6593,
      "Test": 6594,
      "bass": 6595,
      "gus": 6596,
      "acre": 6597,
      "adap": 6598,
      "decre": 6599,
      "univers": 6600,
      "shi": 6601,
      "Innis": 6602,
      "trou": 6603,
      "ighter": 6604,
      "antis": 6605,
      "Arthur": 6606,
      "oba": 6607,
      "Austri": 6608,
      "decade": 6609,
      "campus": 6610,
      "1952": 6611,
      "Board": 6612,
      "Songs": 6613,
      "alternative": 6614,
      "accident": 6615,
      "rules": 6616,
      "applied": 6617,
      "instrument": 6618,
      "battery": 6619,
      "battleship": 6620,
      "Additionally": 6621,
      "witness": 6622,
      "widespread": 6623,
      "54": 6624,
      "58": 6625,
      "Hart": 6626,
      "Ko": 6627,
      "Ron": 6628,
      "Rom": 6629,
      "Sand": 6630,
      "Wind": 6631,
      "dry": 6632,
      "fox": 6633,
      "pine": 6634,
      "thew": 6635,
      "icial": 6636,
      "arib": 6637,
      "insula": 6638,
      "1975": 6639,
      "1976": 6640,
      "Perón": 6641,
      "squadron": 6642,
      "session": 6643,
      "Doctor": 6644,
      "occasionally": 6645,
      "Hollywood": 6646,
      "IGN": 6647,
      "62": 6648,
      "Dutch": 6649,
      "GA": 6650,
      "Gulf": 6651,
      "Nich": 6652,
      "Plan": 6653,
      "ao": 6654,
      "til": 6655,
      "wed": 6656,
      "inf": 6657,
      "inity": 6658,
      "enge": 6659,
      "altar": 6660,
      "seat": 6661,
      "quake": 6662,
      "airs": 6663,
      "rows": 6664,
      "cano": 6665,
      "ocks": 6666,
      "Constant": 6667,
      "1969": 6668,
      "Color": 6669,
      "skin": 6670,
      "missions": 6671,
      "typical": 6672,
      "McCall": 6673,
      "losses": 6674,
      "satis": 6675,
      "dollars": 6676,
      "98": 6677,
      "Brian": 6678,
      "DE": 6679,
      "DS": 6680,
      "din": 6681,
      "fare": 6682,
      "ils": 6683,
      "uration": 6684,
      "demo": 6685,
      "iring": 6686,
      "agle": 6687,
      "oty": 6688,
      "ried": 6689,
      "abilities": 6690,
      "pete": 6691,
      "estate": 6692,
      "affect": 6693,
      "aug": 6694,
      "supposed": 6695,
      "capable": 6696,
      "longest": 6697,
      "1943": 6698,
      "1978": 6699,
      "grapher": 6700,
      "aska": 6701,
      "Cole": 6702,
      "Track": 6703,
      "Andy": 6704,
      "Express": 6705,
      "massive": 6706,
      "responded": 6707,
      "performing": 6708,
      "experiment": 6709,
      "portrayed": 6710,
      "Croatia": 6711,
      "weakened": 6712,
      "accompanied": 6713,
      "fictional": 6714,
      "Band": 6715,
      "mig": 6716,
      "task": 6717,
      "stages": 6718,
      "rol": 6719,
      "accur": 6720,
      "begun": 6721,
      "cher": 6722,
      "igation": 6723,
      "kee": 6724,
      "finals": 6725,
      "indicated": 6726,
      "angle": 6727,
      "crime": 6728,
      "1977": 6729,
      "1965": 6730,
      "1956": 6731,
      "vote": 6732,
      "historic": 6733,
      "Magazine": 6734,
      "baseball": 6735,
      "distinct": 6736,
      "opinion": 6737,
      "77": 6738,
      "93": 6739,
      "ule": 6740,
      "edar": 6741,
      "esc": 6742,
      "leaves": 6743,
      "uma": 6744,
      "moves": 6745,
      "shall": 6746,
      "norm": 6747,
      "Conserv": 6748,
      "succeeded": 6749,
      "USA": 6750,
      "1936": 6751,
      "limit": 6752,
      "introduction": 6753,
      "Hamels": 6754,
      "stopped": 6755,
      "arranged": 6756,
      "details": 6757,
      "truth": 6758,
      "weapons": 6759,
      "Kil": 6760,
      "Sem": 6761,
      "ito": 6762,
      "knew": 6763,
      "lon": 6764,
      "tav": 6765,
      "toll": 6766,
      "ician": 6767,
      "acon": 6768,
      "acity": 6769,
      "bean": 6770,
      "ols": 6771,
      "noting": 6772,
      "elled": 6773,
      "visible": 6774,
      "perior": 6775,
      "warm": 6776,
      "generation": 6777,
      "refle": 6778,
      "strip": 6779,
      "provides": 6780,
      "rooms": 6781,
      "discovery": 6782,
      "poems": 6783,
      "ISBN": 6784,
      "Colonel": 6785,
      "Paralympic": 6786,
      "Djed": 6787,
      "permanent": 6788,
      "Eliza": 6789,
      "kilometres": 6790,
      "Dream": 6791,
      "Hib": 6792,
      "Sound": 6793,
      "aud": 6794,
      "basketball": 6795,
      "cry": 6796,
      "mort": 6797,
      "isers": 6798,
      "tomb": 6799,
      "itled": 6800,
      "aces": 6801,
      "acid": 6802,
      "amber": 6803,
      "conve": 6804,
      "isters": 6805,
      "Instead": 6806,
      "spons": 6807,
      "blical": 6808,
      "brary": 6809,
      "gameplay": 6810,
      "appeal": 6811,
      "developing": 6812,
      "receiving": 6813,
      "remainder": 6814,
      "Carl": 6815,
      "solid": 6816,
      "southwest": 6817,
      "motor": 6818,
      "watched": 6819,
      "races": 6820,
      "rupt": 6821,
      "agonist": 6822,
      "convoy": 6823,
      "integr": 6824,
      "extremely": 6825,
      "article": 6826,
      "exclus": 6827,
      "expedition": 6828,
      "Djedkare": 6829,
      "Bern": 6830,
      "CC": 6831,
      "Ten": 6832,
      "dating": 6833,
      "mine": 6834,
      "sed": 6835,
      "tack": 6836,
      "zone": 6837,
      "ini": 6838,
      "ero": 6839,
      "erup": 6840,
      "stic": 6841,
      "ador": 6842,
      "ading": 6843,
      "chrom": 6844,
      "aya": 6845,
      "exact": 6846,
      "evacu": 6847,
      "forming": 6848,
      "foundation": 6849,
      "1983": 6850,
      "downtown": 6851,
      "breaking": 6852,
      "controll": 6853,
      "reality": 6854,
      "providing": 6855,
      "charts": 6856,
      "Similar": 6857,
      "Oslo": 6858,
      "Five": 6859,
      "Rod": 6860,
      "Slam": 6861,
      "Top": 6862,
      "cold": 6863,
      "dream": 6864,
      "gé": 6865,
      "gate": 6866,
      "ja": 6867,
      "ange": 6868,
      "entially": 6869,
      "deities": 6870,
      "isted": 6871,
      "express": 6872,
      "manner": 6873,
      "Heart": 6874,
      "guan": 6875,
      "Anton": 6876,
      "substant": 6877,
      "opera": 6878,
      "denied": 6879,
      "correct": 6880,
      "stones": 6881,
      "seeing": 6882,
      "studied": 6883,
      "consisting": 6884,
      "Cambridge": 6885,
      "happy": 6886,
      "Turk": 6887,
      "reinforce": 6888,
      "pilot": 6889,
      "converted": 6890,
      "paintings": 6891,
      "Lieutenant": 6892,
      "71": 6893,
      "Carib": 6894,
      "Domin": 6895,
      "Row": 6896,
      "Xe": 6897,
      "nut": 6898,
      "rural": 6899,
      "stances": 6900,
      "arg": 6901,
      "admitted": 6902,
      "seas": 6903,
      "sects": 6904,
      "terior": 6905,
      "neither": 6906,
      "bling": 6907,
      "format": 6908,
      "formal": 6909,
      "ogy": 6910,
      "preg": 6911,
      "interpret": 6912,
      "colour": 6913,
      "12th": 6914,
      "getting": 6915,
      "1957": 6916,
      "Project": 6917,
      "combination": 6918,
      "difficulty": 6919,
      "survived": 6920,
      "slowly": 6921,
      "teaching": 6922,
      "Francisco": 6923,
      "rhyth": 6924,
      "opportunity": 6925,
      "Applewhite": 6926,
      "Building": 6927,
      "Age": 6928,
      "Bank": 6929,
      "fold": 6930,
      "iers": 6931,
      "page": 6932,
      "store": 6933,
      "anda": 6934,
      "aser": 6935,
      "itors": 6936,
      "irt": 6937,
      "iger": 6938,
      "elli": 6939,
      "1915": 6940,
      "ophy": 6941,
      "ameter": 6942,
      "sche": 6943,
      "phone": 6944,
      "athers": 6945,
      "genetic": 6946,
      "completion": 6947,
      "1971": 6948,
      "Cardiff": 6949,
      "dominated": 6950,
      "missing": 6951,
      "approved": 6952,
      "1953": 6953,
      "authors": 6954,
      "Barrow": 6955,
      "looked": 6956,
      "basic": 6957,
      "Madonna": 6958,
      "SAFE": 6959,
      "administration": 6960,
      "candidate": 6961,
      "Shortly": 6962,
      "AR": 6963,
      "Person": 6964,
      "eff": 6965,
      "hall": 6966,
      "kins": 6967,
      "mere": 6968,
      "incess": 6969,
      "replace": 6970,
      "isy": 6971,
      "advis": 6972,
      "ceived": 6973,
      "conference": 6974,
      "aga": 6975,
      "opposition": 6976,
      "embark": 6977,
      "compon": 6978,
      "ictions": 6979,
      "pointed": 6980,
      "legs": 6981,
      "1963": 6982,
      "1966": 6983,
      "iverse": 6984,
      "protect": 6985,
      "turning": 6986,
      "BCE": 6987,
      "settlers": 6988,
      "Irat": 6989,
      "invited": 6990,
      "Braz": 6991,
      "rarely": 6992,
      "Trans": 6993,
      "bringing": 6994,
      "Throughout": 6995,
      "custom": 6996,
      "Brosnan": 6997,
      "Ash": 6998,
      "Abu": 6999,
      "Crown": 7000,
      "Nathan": 7001,
      "Pers": 7002,
      "Sher": 7003,
      "Tel": 7004,
      "bought": 7005,
      "march": 7006,
      "soci": 7007,
      "wich": 7008,
      "orbit": 7009,
      "entry": 7010,
      "entering": 7011,
      "channel": 7012,
      "uscript": 7013,
      "1917": 7014,
      "plain": 7015,
      "cles": 7016,
      "exerc": 7017,
      "ava": 7018,
      "derived": 7019,
      "renamed": 7020,
      "speaking": 7021,
      "angers": 7022,
      "Leon": 7023,
      "funds": 7024,
      "bands": 7025,
      "Commander": 7026,
      "digital": 7027,
      "split": 7028,
      "crowd": 7029,
      "nucleus": 7030,
      "secure": 7031,
      "obtained": 7032,
      "supplies": 7033,
      "astronom": 7034,
      "twelve": 7035,
      "fashion": 7036,
      "Modern": 7037,
      "Caribbean": 7038,
      "Bald": 7039,
      "Haven": 7040,
      "Jurch": 7041,
      "Les": 7042,
      "RE": 7043,
      "Sa": 7044,
      "fal": 7045,
      "tin": 7046,
      "zo": 7047,
      "stress": 7048,
      "ione": 7049,
      "usal": 7050,
      "aked": 7051,
      "ublin": 7052,
      "leads": 7053,
      "1948": 7054,
      "label": 7055,
      "Juan": 7056,
      "Prime": 7057,
      "technical": 7058,
      "trait": 7059,
      "graded": 7060,
      "burns": 7061,
      "separated": 7062,
      "specifically": 7063,
      "layer": 7064,
      "economy": 7065,
      "Iceland": 7066,
      "Crazy": 7067,
      "Jesus": 7068,
      "iques": 7069,
      "ranean": 7070,
      "Colorado": 7071,
      "Bos": 7072,
      "Bru": 7073,
      "SS": 7074,
      "UN": 7075,
      "gro": 7076,
      "ients": 7077,
      "lake": 7078,
      "nic": 7079,
      "psy": 7080,
      "inher": 7081,
      "stro": 7082,
      "1913": 7083,
      "neck": 7084,
      "diag": 7085,
      "Chart": 7086,
      "attributed": 7087,
      "attached": 7088,
      "recru": 7089,
      "Alan": 7090,
      "miner": 7091,
      "underground": 7092,
      "someone": 7093,
      "charter": 7094,
      "Norway": 7095,
      "identity": 7096,
      "decis": 7097,
      "Maria": 7098,
      "tribes": 7099,
      "funding": 7100,
      "doub": 7101,
      "Keats": 7102,
      "feeling": 7103,
      "biography": 7104,
      "routes": 7105,
      "nomination": 7106,
      "incorporated": 7107,
      "eighth": 7108,
      "Area": 7109,
      "Allied": 7110,
      "Nichol": 7111,
      "Irataba": 7112,
      "88": 7113,
      "91": 7114,
      "Corn": 7115,
      "Dublin": 7116,
      "Master": 7117,
      "MTV": 7118,
      "Nintend": 7119,
      "UTC": 7120,
      "cinem": 7121,
      "dock": 7122,
      "fuel": 7123,
      "franch": 7124,
      "san": 7125,
      "taught": 7126,
      "ua": 7127,
      "wish": 7128,
      "urg": 7129,
      "cture": 7130,
      "concrete": 7131,
      "1912": 7132,
      "ateur": 7133,
      "expect": 7134,
      "iller": 7135,
      "fear": 7136,
      "offers": 7137,
      "sses": 7138,
      "retire": 7139,
      "Who": 7140,
      "whereas": 7141,
      "distribution": 7142,
      "1979": 7143,
      "reading": 7144,
      "classification": 7145,
      "willing": 7146,
      "personnel": 7147,
      "virt": 7148,
      "Muslim": 7149,
      "greatly": 7150,
      "interested": 7151,
      "technique": 7152,
      "association": 7153,
      "namese": 7154,
      "Vietnamese": 7155,
      "chapter": 7156,
      "remn": 7157,
      "Television": 7158,
      "thousands": 7159,
      "reputation": 7160,
      "Nintendo": 7161,
      "Aston": 7162,
      "Bed": 7163,
      "Hou": 7164,
      "NL": 7165,
      "OC": 7166,
      "Snow": 7167,
      "Sports": 7168,
      "Tal": 7169,
      "fi": 7170,
      "gone": 7171,
      "vac": 7172,
      "wel": 7173,
      "ano": 7174,
      "orter": 7175,
      "illi": 7176,
      "ctic": 7177,
      "agues": 7178,
      "lide": 7179,
      "liked": 7180,
      "manuscript": 7181,
      "ources": 7182,
      "Stadium": 7183,
      "sized": 7184,
      "contribut": 7185,
      "monument": 7186,
      "charges": 7187,
      "surrender": 7188,
      "characteristics": 7189,
      "passeng": 7190,
      "classical": 7191,
      "controvers": 7192,
      "changing": 7193,
      "Mounted": 7194,
      "cruisers": 7195,
      "Cambo": 7196,
      "independence": 7197,
      "emerged": 7198,
      "architecture": 7199,
      "Critical": 7200,
      "mathemat": 7201,
      "Brazil": 7202,
      "Now": 7203,
      "Raf": 7204,
      "Vis": 7205,
      "bone": 7206,
      "cular": 7207,
      "pse": 7208,
      "eness": 7209,
      "hem": 7210,
      "shots": 7211,
      "mention": 7212,
      "dub": 7213,
      "intention": 7214,
      "poses": 7215,
      "shel": 7216,
      "ifications": 7217,
      "describing": 7218,
      "placing": 7219,
      "evening": 7220,
      "axy": 7221,
      "laws": 7222,
      "equal": 7223,
      "Hospital": 7224,
      "sufficient": 7225,
      "traveled": 7226,
      "prede": 7227,
      "dynam": 7228,
      "About": 7229,
      "Science": 7230,
      "painting": 7231,
      "establishment": 7232,
      "indicate": 7233,
      "portray": 7234,
      "Brook": 7235,
      "Secretary": 7236,
      "Nelson": 7237,
      "250": 7238,
      "57": 7239,
      "Die": 7240,
      "Fame": 7241,
      "Fair": 7242,
      "Jun": 7243,
      "Kang": 7244,
      "Key": 7245,
      "Loc": 7246,
      "ography": 7247,
      "safety": 7248,
      "yo": 7249,
      "infr": 7250,
      "ani": 7251,
      "agents": 7252,
      "resident": 7253,
      "plate": 7254,
      "shared": 7255,
      "lik": 7256,
      "exception": 7257,
      "rang": 7258,
      "erald": 7259,
      "towers": 7260,
      "valley": 7261,
      "appropri": 7262,
      "towns": 7263,
      "1958": 7264,
      "Teika": 7265,
      "churches": 7266,
      "competitions": 7267,
      "novels": 7268,
      "settled": 7269,
      "habitat": 7270,
      "discussed": 7271,
      "considerable": 7272,
      "safe": 7273,
      "thirty": 7274,
      "delivered": 7275,
      "chorus": 7276,
      "normally": 7277,
      "Turkish": 7278,
      "82": 7279,
      "Cru": 7280,
      "Wars": 7281,
      "cab": 7282,
      "cens": 7283,
      "ko": 7284,
      "none": 7285,
      "income": 7286,
      "roit": 7287,
      "irs": 7288,
      "agree": 7289,
      "abol": 7290,
      "dia": 7291,
      "pton": 7292,
      "oked": 7293,
      "airport": 7294,
      "15th": 7295,
      "Rober": 7296,
      "armor": 7297,
      "joint": 7298,
      "believes": 7299,
      "politics": 7300,
      "crossed": 7301,
      "walk": 7302,
      "Transport": 7303,
      "Howard": 7304,
      "cougar": 7305,
      "camera": 7306,
      "Robin": 7307,
      "skyscrapers": 7308,
      "duties": 7309,
      "prosperity": 7310,
      "adapted": 7311,
      "Houston": 7312,
      "92": 7313,
      "Bishop": 7314,
      "Chel": 7315,
      "Mun": 7316,
      "NBC": 7317,
      "Sav": 7318,
      "Voy": 7319,
      "jac": 7320,
      "jump": 7321,
      "py": 7322,
      "pir": 7323,
      "tied": 7324,
      "wins": 7325,
      "winner": 7326,
      "zen": 7327,
      "thy": 7328,
      "eda": 7329,
      "inger": 7330,
      "itage": 7331,
      "oting": 7332,
      "planning": 7333,
      "aka": 7334,
      "fee": 7335,
      "actual": 7336,
      "spher": 7337,
      "pha": 7338,
      "genre": 7339,
      "products": 7340,
      "ologists": 7341,
      "download": 7342,
      "Marine": 7343,
      "explor": 7344,
      "Stephen": 7345,
      "magn": 7346,
      "viruses": 7347,
      "references": 7348,
      "Within": 7349,
      "techniques": 7350,
      "questions": 7351,
      "connection": 7352,
      "Million": 7353,
      "Archae": 7354,
      "circum": 7355,
      "convin": 7356,
      "Samuel": 7357,
      "Hugh": 7358,
      "photograph": 7359,
      "scientific": 7360,
      "Alexander": 7361,
      "Family": 7362,
      "Detroit": 7363,
      "Anthony": 7364,
      "Wy": 7365,
      "caught": 7366,
      "lings": 7367,
      "nick": 7368,
      "sle": 7369,
      "voted": 7370,
      "zona": 7371,
      "institut": 7372,
      "islands": 7373,
      "icate": 7374,
      "aments": 7375,
      "apped": 7376,
      "compete": 7377,
      "diameter": 7378,
      "quant": 7379,
      "grade": 7380,
      "assess": 7381,
      "Chronic": 7382,
      "recip": 7383,
      "ampions": 7384,
      "consult": 7385,
      "mush": 7386,
      "capacity": 7387,
      "depicted": 7388,
      "chemical": 7389,
      "classes": 7390,
      "Georg": 7391,
      "phoon": 7392,
      "Player": 7393,
      "Simon": 7394,
      "Military": 7395,
      "violence": 7396,
      "Director": 7397,
      "Arizona": 7398,
      "pattern": 7399,
      "Argentina": 7400,
      "Watchmen": 7401,
      "67": 7402,
      "Aer": 7403,
      "Lau": 7404,
      "cake": 7405,
      "gor": 7406,
      "nos": 7407,
      "pound": 7408,
      "tie": 7409,
      "uous": 7410,
      "āda": 7411,
      "aton": 7412,
      "illy": 7413,
      "ented": 7414,
      "1910": 7415,
      "opher": 7416,
      "proto": 7417,
      "trust": 7418,
      "antimony": 7419,
      "owner": 7420,
      "regional": 7421,
      "product": 7422,
      "Recording": 7423,
      "Lee": 7424,
      "ropol": 7425,
      "showing": 7426,
      "hys": 7427,
      "cycle": 7428,
      "volunte": 7429,
      "passage": 7430,
      "ibility": 7431,
      "valu": 7432,
      "grounds": 7433,
      "Hergé": 7434,
      "priest": 7435,
      "1937": 7436,
      "communities": 7437,
      "involving": 7438,
      "decline": 7439,
      "certified": 7440,
      "approached": 7441,
      "journey": 7442,
      "concerns": 7443,
      "Michelle": 7444,
      "restored": 7445,
      "revolution": 7446,
      "Thunderbirds": 7447,
      "parallel": 7448,
      "LI": 7449,
      "OT": 7450,
      "Treat": 7451,
      "dim": 7452,
      "dict": 7453,
      "lau": 7454,
      "wan": 7455,
      "bels": 7456,
      "aggress": 7457,
      "romantic": 7458,
      "sud": 7459,
      "scop": 7460,
      "ignment": 7461,
      "creator": 7462,
      "ffalo": 7463,
      "internal": 7464,
      "soil": 7465,
      "designs": 7466,
      "1961": 7467,
      "battalions": 7468,
      "1954": 7469,
      "starred": 7470,
      "strongly": 7471,
      "expensive": 7472,
      "Davies": 7473,
      "suffering": 7474,
      "crosses": 7475,
      "dolph": 7476,
      "recognition": 7477,
      "railroad": 7478,
      "AAF": 7479,
      "hoped": 7480,
      "methods": 7481,
      "challenge": 7482,
      "Supreme": 7483,
      "adaptation": 7484,
      "intelligence": 7485,
      "isolated": 7486,
      "Elizabeth": 7487,
      "112": 7488,
      "Cart": 7489,
      "Daily": 7490,
      "Gab": 7491,
      "Gary": 7492,
      "Gra": 7493,
      "bie": 7494,
      "dale": 7495,
      "ninth": 7496,
      "assem": 7497,
      "versi": 7498,
      "idd": 7499,
      "etime": 7500,
      "pled": 7501,
      "plane": 7502,
      "istry": 7503,
      "earch": 7504,
      "eving": 7505,
      "brand": 7506,
      "meets": 7507,
      "offs": 7508,
      "Unlike": 7509,
      "10th": 7510,
      "crim": 7511,
      "Construction": 7512,
      "stands": 7513,
      "1955": 7514,
      "hotel": 7515,
      "graphics": 7516,
      "historians": 7517,
      "accounts": 7518,
      "selection": 7519,
      "Disney": 7520,
      "Imperial": 7521,
      "scholars": 7522,
      "carrying": 7523,
      "demol": 7524,
      "Rolling": 7525,
      "opposite": 7526,
      "involvement": 7527,
      "predecess": 7528,
      "63": 7529,
      "Amy": 7530,
      "DA": 7531,
      "EC": 7532,
      "Edu": 7533,
      "Every": 7534,
      "Rem": 7535,
      "card": 7536,
      "ea": 7537,
      "lamb": 7538,
      "erick": 7539,
      "iling": 7540,
      "ilton": 7541,
      "entitled": 7542,
      "agen": 7543,
      "elim": 7544,
      "uls": 7545,
      "plum": 7546,
      "proceed": 7547,
      "emotional": 7548,
      "antly": 7549,
      "sie": 7550,
      "ohl": 7551,
      "ression": 7552,
      "causes": 7553,
      "iversary": 7554,
      "solution": 7555,
      "Space": 7556,
      "Harrison": 7557,
      "posted": 7558,
      "Media": 7559,
      "medieval": 7560,
      "existed": 7561,
      "surviv": 7562,
      "audio": 7563,
      "assistant": 7564,
      "Special": 7565,
      "debate": 7566,
      "Weekly": 7567,
      "resistance": 7568,
      "Journal": 7569,
      "industrial": 7570,
      "hunting": 7571,
      "atmosphere": 7572,
      "99": 7573,
      "CP": 7574,
      "Fel": 7575,
      "Jay": 7576,
      "Kit": 7577,
      "Kel": 7578,
      "Kansas": 7579,
      "Pict": 7580,
      "Walter": 7581,
      "Ye": 7582,
      "bond": 7583,
      "eat": 7584,
      "rus": 7585,
      "vin": 7586,
      "theat": 7587,
      "replacement": 7588,
      "select": 7589,
      "amy": 7590,
      "urs": 7591,
      "deed": 7592,
      "abled": 7593,
      "feed": 7594,
      "otherwise": 7595,
      "mont": 7596,
      "retained": 7597,
      "ropium": 7598,
      "storms": 7599,
      "steel": 7600,
      "successor": 7601,
      "inking": 7602,
      "Plot": 7603,
      "sequently": 7604,
      "sentence": 7605,
      "Boise": 7606,
      "naissance": 7607,
      "burgh": 7608,
      "terminus": 7609,
      "coastal": 7610,
      "Sunday": 7611,
      "ruled": 7612,
      "railway": 7613,
      "assistance": 7614,
      "painted": 7615,
      "Delaware": 7616,
      "attracted": 7617,
      "forests": 7618,
      "Office": 7619,
      "proposal": 7620,
      "segment": 7621,
      "easily": 7622,
      "Jain": 7623,
      "Kat": 7624,
      "Net": 7625,
      "Uly": 7626,
      "fine": 7627,
      "ias": 7628,
      "math": 7629,
      "pa": 7630,
      "tip": 7631,
      "edom": 7632,
      "sters": 7633,
      "stayed": 7634,
      "itus": 7635,
      "impl": 7636,
      "unusual": 7637,
      "teacher": 7638,
      "apart": 7639,
      "1911": 7640,
      "iance": 7641,
      "evo": 7642,
      "oking": 7643,
      "dismissed": 7644,
      "ogen": 7645,
      "sheep": 7646,
      "minister": 7647,
      "distributed": 7648,
      "tries": 7649,
      "covering": 7650,
      "1951": 7651,
      "1931": 7652,
      "Liu": 7653,
      "Earl": 7654,
      "penalty": 7655,
      "crossing": 7656,
      "hosted": 7657,
      "belt": 7658,
      "regularly": 7659,
      "patron": 7660,
      "absor": 7661,
      "immig": 7662,
      "Somal": 7663,
      "ánh": 7664,
      "inspiration": 7665,
      "wrong": 7666,
      "Friends": 7667,
      "Ulysses": 7668,
      "68": 7669,
      "Homer": 7670,
      "Iron": 7671,
      "Power": 7672,
      "drug": 7673,
      "mac": 7674,
      "pure": 7675,
      "spok": 7676,
      "tone": 7677,
      "turb": 7678,
      "uto": 7679,
      "vary": 7680,
      "vens": 7681,
      "wet": 7682,
      "remix": 7683,
      "destruction": 7684,
      "abour": 7685,
      "asser": 7686,
      "Channel": 7687,
      "prised": 7688,
      "scape": 7689,
      "finishing": 7690,
      "interior": 7691,
      "leadership": 7692,
      "operating": 7693,
      "Carter": 7694,
      "offices": 7695,
      "storyline": 7696,
      "Germans": 7697,
      "reviewer": 7698,
      "iterranean": 7699,
      "everything": 7700,
      "equival": 7701,
      "Mediterranean": 7702,
      "relationships": 7703,
      "traits": 7704,
      "ugos": 7705,
      "learn": 7706,
      "Jews": 7707,
      "MacLe": 7708,
      "preced": 7709,
      "Evita": 7710,
      "Territ": 7711,
      "baby": 7712,
      "Castle": 7713,
      "Jamal": 7714,
      "behavi": 7715,
      "Independent": 7716,
      "eggs": 7717,
      "dissipated": 7718,
      "Admiral": 7719,
      "escort": 7720,
      "franchise": 7721,
      "AD": 7722,
      "AP": 7723,
      "Bush": 7724,
      "Mit": 7725,
      "Mot": 7726,
      "Rap": 7727,
      "Santa": 7728,
      "Ton": 7729,
      "Tina": 7730,
      "Yan": 7731,
      "cod": 7732,
      "cash": 7733,
      "rets": 7734,
      "ala": 7735,
      "icon": 7736,
      "hear": 7737,
      "accom": 7738,
      "sector": 7739,
      "opt": 7740,
      "liber": 7741,
      "cloth": 7742,
      "divisions": 7743,
      "essential": 7744,
      "Chak": 7745,
      "ureau": 7746,
      "recre": 7747,
      "weigh": 7748,
      "Around": 7749,
      "issip": 7750,
      "designation": 7751,
      "porter": 7752,
      "statement": 7753,
      "140": 7754,
      "transit": 7755,
      "generated": 7756,
      "brothers": 7757,
      "Organ": 7758,
      "commanded": 7759,
      "Mississip": 7760,
      "Hooper": 7761,
      "Atlantis": 7762,
      "alogue": 7763,
      "documents": 7764,
      "divor": 7765,
      "instruments": 7766,
      "junction": 7767,
      "organisms": 7768,
      "Khánh": 7769,
      "Ryan": 7770,
      "Phoenix": 7771,
      "submarine": 7772,
      "controversy": 7773,
      "Roberts": 7774,
      "Av": 7775,
      "Bron": 7776,
      "Cur": 7777,
      "Dur": 7778,
      "Gang": 7779,
      "Here": 7780,
      "Morgan": 7781,
      "NS": 7782,
      "Tower": 7783,
      "Wis": 7784,
      "cation": 7785,
      "hits": 7786,
      "iet": 7787,
      "ocean": 7788,
      "youth": 7789,
      "ān": 7790,
      "onica": 7791,
      "ardian": 7792,
      "lev": 7793,
      "adm": 7794,
      "deleg": 7795,
      "absol": 7796,
      "Ind": 7797,
      "Init": 7798,
      "exchange": 7799,
      "ardo": 7800,
      "strateg": 7801,
      "formally": 7802,
      "offense": 7803,
      "desire": 7804,
      "ultane": 7805,
      "fled": 7806,
      "Ark": 7807,
      "Show": 7808,
      "hypo": 7809,
      "1962": 7810,
      "organizations": 7811,
      "camps": 7812,
      "joining": 7813,
      "effectively": 7814,
      "Order": 7815,
      "profit": 7816,
      "installed": 7817,
      "seemed": 7818,
      "responsibility": 7819,
      "Singles": 7820,
      "purchase": 7821,
      "archaeological": 7822,
      "wearing": 7823,
      "legislation": 7824,
      "1920s": 7825,
      "preserved": 7826,
      "message": 7827,
      "encouraged": 7828,
      "Destiny": 7829,
      "Mortal": 7830,
      "sudden": 7831,
      "86": 7832,
      "Cad": 7833,
      "Cop": 7834,
      "Iguan": 7835,
      "Jac": 7836,
      "Less": 7837,
      "Rele": 7838,
      "cock": 7839,
      "gard": 7840,
      "hat": 7841,
      "oto": 7842,
      "sam": 7843,
      "wine": 7844,
      "yson": 7845,
      "ende": 7846,
      "orous": 7847,
      "orche": 7848,
      "adjac": 7849,
      "clock": 7850,
      "aks": 7851,
      "scatter": 7852,
      "noon": 7853,
      "code": 7854,
      "fles": 7855,
      "regime": 7856,
      "elev": 7857,
      "somewhat": 7858,
      "consum": 7859,
      "Rox": 7860,
      "trium": 7861,
      "1935": 7862,
      "Cool": 7863,
      "influential": 7864,
      "1909": 7865,
      "telling": 7866,
      "streets": 7867,
      "practices": 7868,
      "Joe": 7869,
      "Simone": 7870,
      "Mexican": 7871,
      "literary": 7872,
      "Jean": 7873,
      "Jersey": 7874,
      "visitors": 7875,
      "divine": 7876,
      "Tennyson": 7877,
      "wedding": 7878,
      "Mississippi": 7879,
      "Bat": 7880,
      "Dak": 7881,
      "Elect": 7882,
      "Hindu": 7883,
      "Pa": 7884,
      "Rio": 7885,
      "WW": 7886,
      "bom": 7887,
      "jum": 7888,
      "theatre": 7889,
      "sta": 7890,
      "aced": 7891,
      "sees": 7892,
      "amin": 7893,
      "agas": 7894,
      "teor": 7895,
      "comfort": 7896,
      "abund": 7897,
      "outbreak": 7898,
      "gras": 7899,
      "recalled": 7900,
      "intersection": 7901,
      "flat": 7902,
      "Alf": 7903,
      "myster": 7904,
      "Review": 7905,
      "Beach": 7906,
      "1949": 7907,
      "values": 7908,
      "check": 7909,
      "Australians": 7910,
      "Prof": 7911,
      "Perry": 7912,
      "treated": 7913,
      "Research": 7914,
      "examples": 7915,
      "department": 7916,
      "secured": 7917,
      "mobile": 7918,
      "detailed": 7919,
      "agricultural": 7920,
      "Lisa": 7921,
      "Grammy": 7922,
      "Pope": 7923,
      "Yugos": 7924,
      "gross": 7925,
      "ridge": 7926,
      "tick": 7927,
      "inct": 7928,
      "represents": 7929,
      "convent": 7930,
      "afts": 7931,
      "Chains": 7932,
      "spel": 7933,
      "parties": 7934,
      "Third": 7935,
      "redshift": 7936,
      "ountain": 7937,
      "angular": 7938,
      "anniversary": 7939,
      "drain": 7940,
      "crash": 7941,
      "valid": 7942,
      "promote": 7943,
      "grey": 7944,
      "claiming": 7945,
      "planets": 7946,
      "wooden": 7947,
      "basin": 7948,
      "needs": 7949,
      "sessions": 7950,
      "altern": 7951,
      "engineering": 7952,
      "panel": 7953,
      "flights": 7954,
      "surrounded": 7955,
      "moral": 7956,
      "Trek": 7957,
      "possession": 7958,
      "absence": 7959,
      "Stock": 7960,
      "picked": 7961,
      "behavior": 7962,
      "Writing": 7963,
      "Confeder": 7964,
      "victims": 7965,
      "Spring": 7966,
      "Chelsea": 7967,
      "MacLeod": 7968,
      "adjacent": 7969,
      "Yugoslav": 7970,
      "900": 7971,
      "Ag": 7972,
      "Dave": 7973,
      "Ike": 7974,
      "Ridge": 7975,
      "Sara": 7976,
      "Tro": 7977,
      "Winter": 7978,
      "ees": 7979,
      "puzz": 7980,
      "itic": 7981,
      "rog": 7982,
      "chi": 7983,
      "ches": 7984,
      "olf": 7985,
      "pest": 7986,
      "ester": 7987,
      "grant": 7988,
      "lose": 7989,
      "worst": 7990,
      "partial": 7991,
      "crest": 7992,
      "Ant": 7993,
      "flash": 7994,
      "doct": 7995,
      "medium": 7996,
      "Sha": 7997,
      "membr": 7998,
      "signing": 7999,
      "volcano": 8000,
      "Forces": 8001,
      "xture": 8002,
      "classic": 8003,
      "attacking": 8004,
      "standards": 8005,
      "difference": 8006,
      "1959": 8007,
      "facing": 8008,
      "styles": 8009,
      "Edwin": 8010,
      "drawing": 8011,
      "sounds": 8012,
      "Holy": 8013,
      "Activ": 8014,
      "properties": 8015,
      "Prior": 8016,
      "occasions": 8017,
      "concerned": 8018,
      "favorite": 8019,
      "spoke": 8020,
      "equipped": 8021,
      "earthquake": 8022,
      "Human": 8023,
      "recovered": 8024,
      "specimens": 8025,
      "Industry": 8026,
      "Roger": 8027,
      "Brien": 8028,
      "3D": 8029,
      "84": 8030,
      "Ball": 8031,
      "CO": 8032,
      "Cult": 8033,
      "Mir": 8034,
      "Main": 8035,
      "OK": 8036,
      "Ode": 8037,
      "Sap": 8038,
      "Wat": 8039,
      "cli": 8040,
      "crown": 8041,
      "lum": 8042,
      "inhabit": 8043,
      "ensure": 8044,
      "heat": 8045,
      "ilation": 8046,
      "vell": 8047,
      "1900": 8048,
      "iston": 8049,
      "exh": 8050,
      "acknow": 8051,
      "ritual": 8052,
      "recur": 8053,
      "posing": 8054,
      "braska": 8055,
      "partly": 8056,
      "understand": 8057,
      "operate": 8058,
      "13th": 8059,
      "Stevens": 8060,
      "Georgian": 8061,
      "Nether": 8062,
      "Nebraska": 8063,
      "dynasty": 8064,
      "territories": 8065,
      "Buffalo": 8066,
      "committed": 8067,
      "immediate": 8068,
      "observations": 8069,
      "climate": 8070,
      "Memorial": 8071,
      "province": 8072,
      "recommended": 8073,
      "neighborhood": 8074,
      "Millionaire": 8075,
      "Bou": 8076,
      "Dor": 8077,
      "Ey": 8078,
      "Jr": 8079,
      "Jos": 8080,
      "Kim": 8081,
      "Ur": 8082,
      "Ut": 8083,
      "ios": 8084,
      "tle": 8085,
      "inland": 8086,
      "itated": 8087,
      "icipal": 8088,
      "beam": 8089,
      "iday": 8090,
      "ockey": 8091,
      "acks": 8092,
      "firing": 8093,
      "owners": 8094,
      "aws": 8095,
      "lowest": 8096,
      "bright": 8097,
      "offman": 8098,
      "merged": 8099,
      "monarch": 8100,
      "Anonymous": 8101,
      "fungus": 8102,
      "transition": 8103,
      "11th": 8104,
      "sequel": 8105,
      "listen": 8106,
      "kingdom": 8107,
      "soul": 8108,
      "Hotel": 8109,
      "Square": 8110,
      "Veronica": 8111,
      "Patrick": 8112,
      "spiritual": 8113,
      "Engineer": 8114,
      "modified": 8115,
      "preferred": 8116,
      "Hornung": 8117,
      "Baseball": 8118,
      "AML": 8119,
      "Id": 8120,
      "Jere": 8121,
      "Jess": 8122,
      "Late": 8123,
      "Matt": 8124,
      "Ni": 8125,
      "Ré": 8126,
      "bay": 8127,
      "faster": 8128,
      "hope": 8129,
      "obl": 8130,
      "sid": 8131,
      "tes": 8132,
      "infl": 8133,
      "remark": 8134,
      "orient": 8135,
      "lets": 8136,
      "roots": 8137,
      "urally": 8138,
      "veget": 8139,
      "owed": 8140,
      "context": 8141,
      "eline": 8142,
      "opponents": 8143,
      "shark": 8144,
      "assumed": 8145,
      "uding": 8146,
      "intense": 8147,
      "phr": 8148,
      "charged": 8149,
      "engines": 8150,
      "Marl": 8151,
      "lanes": 8152,
      "Islands": 8153,
      "carbon": 8154,
      "listing": 8155,
      "1938": 8156,
      "Stefan": 8157,
      "alien": 8158,
      "Design": 8159,
      "Descri": 8160,
      "garian": 8161,
      "netic": 8162,
      "ucky": 8163,
      "languages": 8164,
      "ratings": 8165,
      "linked": 8166,
      "printed": 8167,
      "closer": 8168,
      "adults": 8169,
      "ordinary": 8170,
      "journalist": 8171,
      "Lincol": 8172,
      "Yoshi": 8173,
      "convinced": 8174,
      "Dota": 8175,
      "Rangers": 8176,
      "Seven": 8177,
      "VN": 8178,
      "dens": 8179,
      "hatt": 8180,
      "jib": 8181,
      "inaug": 8182,
      "ori": 8183,
      "stell": 8184,
      "amond": 8185,
      "deem": 8186,
      "implement": 8187,
      "cement": 8188,
      "apy": 8189,
      "resources": 8190,
      "util": 8191,
      "superior": 8192,
      "cler": 8193,
      "embr": 8194,
      "exponent": 8195,
      "asters": 8196,
      "Championships": 8197,
      "pron": 8198,
      "achu": 8199,
      "spit": 8200,
      "spell": 8201,
      "displayed": 8202,
      "Then": 8203,
      "Along": 8204,
      "column": 8205,
      "depict": 8206,
      "continuing": 8207,
      "talk": 8208,
      "courts": 8209,
      "reviewers": 8210,
      "margin": 8211,
      "copy": 8212,
      "Corpor": 8213,
      "Haiti": 8214,
      "Palace": 8215,
      "accused": 8216,
      "narrative": 8217,
      "definition": 8218,
      "watching": 8219,
      "civilian": 8220,
      "Croatian": 8221,
      "apparently": 8222,
      "Frederick": 8223,
      "Constantine": 8224,
      "institutions": 8225,
      "equivalent": 8226,
      "Lincoln": 8227,
      "Ak": 8228,
      "Ell": 8229,
      "Fire": 8230,
      "Glo": 8231,
      "Ira": 8232,
      "Pur": 8233,
      "Pass": 8234,
      "bons": 8235,
      "map": 8236,
      "tz": 8237,
      "zes": 8238,
      "thin": 8239,
      "eratops": 8240,
      "stadium": 8241,
      "amateur": 8242,
      "depos": 8243,
      "una": 8244,
      "1927": 8245,
      "aints": 8246,
      "shar": 8247,
      "poser": 8248,
      "overs": 8249,
      "strate": 8250,
      "Thus": 8251,
      "noisy": 8252,
      "colors": 8253,
      "understanding": 8254,
      "setts": 8255,
      "describe": 8256,
      "perspect": 8257,
      "functions": 8258,
      "controversi": 8259,
      "defended": 8260,
      "suggesting": 8261,
      "Maeda": 8262,
      "interests": 8263,
      "interesting": 8264,
      "Point": 8265,
      "surviving": 8266,
      "learning": 8267,
      "Pennock": 8268,
      "threatened": 8269,
      "blocks": 8270,
      "bella": 8271,
      "Mrs": 8272,
      "Silver": 8273,
      "Massachu": 8274,
      "platform": 8275,
      "Simpsons": 8276,
      "picture": 8277,
      "Cardinal": 8278,
      "arrangement": 8279,
      "rescue": 8280,
      "Fantasy": 8281,
      "restaurant": 8282,
      "Hibari": 8283,
      "Massachusetts": 8284,
      "74": 8285,
      "83": 8286,
      "Files": 8287,
      "Happ": 8288,
      "Labor": 8289,
      "Qedar": 8290,
      "Ra": 8291,
      "Wu": 8292,
      "bats": 8293,
      "nations": 8294,
      "onia": 8295,
      "champion": 8296,
      "igins": 8297,
      "convers": 8298,
      "agu": 8299,
      "excess": 8300,
      "mans": 8301,
      "ifies": 8302,
      "landed": 8303,
      "portions": 8304,
      "merch": 8305,
      "izon": 8306,
      "raise": 8307,
      "Attor": 8308,
      "characterized": 8309,
      "Moz": 8310,
      "window": 8311,
      "1908": 8312,
      "Romani": 8313,
      "doesn": 8314,
      "destroyers": 8315,
      "reduce": 8316,
      "ruli": 8317,
      "harmon": 8318,
      "measures": 8319,
      "instance": 8320,
      "rupted": 8321,
      "circulation": 8322,
      "hundreds": 8323,
      "Bradford": 8324,
      "huge": 8325,
      "spacing": 8326,
      "Peninsula": 8327,
      "Railway": 8328,
      "specimen": 8329,
      "Isabella": 8330,
      "reconnaissance": 8331,
      "protagonist": 8332,
      "Kevin": 8333,
      "Lenn": 8334,
      "Mas": 8335,
      "Nine": 8336,
      "Ojib": 8337,
      "Pow": 8338,
      "Patt": 8339,
      "horn": 8340,
      "jazz": 8341,
      "tight": 8342,
      "ét": 8343,
      "inary": 8344,
      "enb": 8345,
      "heli": 8346,
      "oma": 8347,
      "bear": 8348,
      "chronic": 8349,
      "unch": 8350,
      "unsuccessful": 8351,
      "prohib": 8352,
      "trained": 8353,
      "ession": 8354,
      "loan": 8355,
      "Story": 8356,
      "serial": 8357,
      "coat": 8358,
      "interpre": 8359,
      "annah": 8360,
      "legend": 8361,
      "defences": 8362,
      "Advent": 8363,
      "Techn": 8364,
      "praise": 8365,
      "appointment": 8366,
      "Donald": 8367,
      "Senator": 8368,
      "Morrison": 8369,
      "injuries": 8370,
      "Jerusal": 8371,
      "Arabic": 8372,
      "turrets": 8373,
      "spaces": 8374,
      "documentary": 8375,
      "Armoured": 8376,
      "Venus": 8377,
      "global": 8378,
      "Iguanodon": 8379,
      "Dakota": 8380,
      "Jerusalem": 8381,
      "Bang": 8382,
      "Flight": 8383,
      "Having": 8384,
      "fos": 8385,
      "hid": 8386,
      "rant": 8387,
      "sale": 8388,
      "soft": 8389,
      "wants": 8390,
      "inet": 8391,
      "informed": 8392,
      "rep": 8393,
      "stab": 8394,
      "tos": 8395,
      "owa": 8396,
      "concer": 8397,
      "otay": 8398,
      "brick": 8399,
      "afterwards": 8400,
      "rend": 8401,
      "ensis": 8402,
      "Norman": 8403,
      "Johnston": 8404,
      "See": 8405,
      "persu": 8406,
      "returns": 8407,
      "extension": 8408,
      "construct": 8409,
      "1932": 8410,
      "1933": 8411,
      "tests": 8412,
      "Box": 8413,
      "Charlie": 8414,
      "driver": 8415,
      "driving": 8416,
      "avalry": 8417,
      "Lawrence": 8418,
      "powered": 8419,
      "chapel": 8420,
      "Truj": 8421,
      "pushed": 8422,
      "Satur": 8423,
      "beautiful": 8424,
      "distinguished": 8425,
      "assassination": 8426,
      "Chakotay": 8427,
      "Attorney": 8428,
      "Bad": 8429,
      "Cas": 8430,
      "Dev": 8431,
      "Fern": 8432,
      "Gun": 8433,
      "Gully": 8434,
      "Link": 8435,
      "Rus": 8436,
      "Sox": 8437,
      "grown": 8438,
      "snow": 8439,
      "online": 8440,
      "sevent": 8441,
      "amph": 8442,
      "elabor": 8443,
      "1921": 8444,
      "1929": 8445,
      "plus": 8446,
      "shaman": 8447,
      "expression": 8448,
      "notably": 8449,
      "partially": 8450,
      "coins": 8451,
      "releg": 8452,
      "subspecies": 8453,
      "ceratops": 8454,
      "memory": 8455,
      "Islam": 8456,
      "asks": 8457,
      "Guy": 8458,
      "differences": 8459,
      "1934": 8460,
      "refers": 8461,
      "attempting": 8462,
      "factory": 8463,
      "purposes": 8464,
      "tellect": 8465,
      "injured": 8466,
      "situated": 8467,
      "Commonwealth": 8468,
      "drums": 8469,
      "skyscraper": 8470,
      "Nevertheless": 8471,
      "Democratic": 8472,
      "bridges": 8473,
      "Baldwin": 8474,
      "mushroom": 8475,
      "Treaty": 8476,
      "behaviour": 8477,
      "absolute": 8478,
      "controversial": 8479,
      "Trujillo": 8480,
      "AT": 8481,
      "Bible": 8482,
      "Budd": 8483,
      "Dark": 8484,
      "Danny": 8485,
      "Found": 8486,
      "Hay": 8487,
      "Kn": 8488,
      "Mand": 8489,
      "Pul": 8490,
      "Paw": 8491,
      "Vo": 8492,
      "dess": 8493,
      "fant": 8494,
      "lists": 8495,
      "mart": 8496,
      "mud": 8497,
      "invent": 8498,
      "ensu": 8499,
      "acle": 8500,
      "seats": 8501,
      "amino": 8502,
      "forcing": 8503,
      "impressed": 8504,
      "posure": 8505,
      "excell": 8506,
      "overw": 8507,
      "guide": 8508,
      "indig": 8509,
      "understood": 8510,
      "synd": 8511,
      "numbered": 8512,
      "simultane": 8513,
      "musicians": 8514,
      "imeter": 8515,
      "falls": 8516,
      "tested": 8517,
      "rounds": 8518,
      "footage": 8519,
      "influences": 8520,
      "driven": 8521,
      "flags": 8522,
      "itzer": 8523,
      "feelings": 8524,
      "Depression": 8525,
      "fitted": 8526,
      "colonial": 8527,
      "minimum": 8528,
      "onomy": 8529,
      "Nazi": 8530,
      "ABC": 8531,
      "Cel": 8532,
      "Cory": 8533,
      "CBS": 8534,
      "Ep": 8535,
      "Rand": 8536,
      "Sb": 8537,
      "Sid": 8538,
      "Sweet": 8539,
      "fo": 8540,
      "harm": 8541,
      "wend": 8542,
      "yl": 8543,
      "analy": 8544,
      "theology": 8545,
      "renew": 8546,
      "remember": 8547,
      "arte": 8548,
      "tox": 8549,
      "icide": 8550,
      "heim": 8551,
      "ceased": 8552,
      "constitut": 8553,
      "istan": 8554,
      "emp": 8555,
      "astru": 8556,
      "afford": 8557,
      "itsune": 8558,
      "compounds": 8559,
      "ranking": 8560,
      "creative": 8561,
      "Anti": 8562,
      "writings": 8563,
      "Death": 8564,
      "supporters": 8565,
      "paras": 8566,
      "parish": 8567,
      "memorial": 8568,
      "tribut": 8569,
      "promised": 8570,
      "Guard": 8571,
      "handed": 8572,
      "periods": 8573,
      "windows": 8574,
      "graphical": 8575,
      "Davis": 8576,
      "representing": 8577,
      "electronic": 8578,
      "predomin": 8579,
      "recognised": 8580,
      "measured": 8581,
      "teeth": 8582,
      "Hamilton": 8583,
      "deliber": 8584,
      "transportation": 8585,
      "bacterial": 8586,
      "protests": 8587,
      "environmental": 8588,
      "giant": 8589,
      "academic": 8590,
      "infection": 8591,
      "retirement": 8592,
      "remnants": 8593,
      "Georgia": 8594,
      "Cape": 8595,
      "Category": 8596,
      "Pine": 8597,
      "Win": 8598,
      "cous": 8599,
      "jevo": 8600,
      "kid": 8601,
      "sunk": 8602,
      "tank": 8603,
      "intellect": 8604,
      "stim": 8605,
      "enters": 8606,
      "determ": 8607,
      "1928": 8608,
      "trains": 8609,
      "dialogue": 8610,
      "ighters": 8611,
      "boys": 8612,
      "spin": 8613,
      "inton": 8614,
      "afternoon": 8615,
      "regiment": 8616,
      "tenth": 8617,
      "ificial": 8618,
      "venues": 8619,
      "Working": 8620,
      "depending": 8621,
      "Guide": 8622,
      "approval": 8623,
      "falling": 8624,
      "movements": 8625,
      "cope": 8626,
      "animated": 8627,
      "Mountains": 8628,
      "1861": 8629,
      "defeating": 8630,
      "precip": 8631,
      "reserve": 8632,
      "scientists": 8633,
      "NCAA": 8634,
      "minimal": 8635,
      "premiered": 8636,
      "vessels": 8637,
      "aboard": 8638,
      "satisf": 8639,
      "Roxas": 8640,
      "Sarajevo": 8641,
      "determine": 8642,
      "Bio": 8643,
      "Goth": 8644,
      "Kī": 8645,
      "Nar": 8646,
      "Nick": 8647,
      "Yank": 8648,
      "dal": 8649,
      "dish": 8650,
      "iate": 8651,
      "pounds": 8652,
      "tailed": 8653,
      "wrest": 8654,
      "stance": 8655,
      "lyn": 8656,
      "forth": 8657,
      "oli": 8658,
      "igades": 8659,
      "uni": 8660,
      "condem": 8661,
      "otton": 8662,
      "comed": 8663,
      "composer": 8664,
      "prove": 8665,
      "ifer": 8666,
      "disci": 8667,
      "displays": 8668,
      "poll": 8669,
      "trials": 8670,
      "readers": 8671,
      "Plunk": 8672,
      "videos": 8673,
      "Guardian": 8674,
      "armament": 8675,
      "marry": 8676,
      "urricanes": 8677,
      "Interstate": 8678,
      "villages": 8679,
      "meetings": 8680,
      "conclusion": 8681,
      "assisted": 8682,
      "territorial": 8683,
      "Reser": 8684,
      "occupation": 8685,
      "prevented": 8686,
      "pitcher": 8687,
      "contestant": 8688,
      "moments": 8689,
      "Enterprise": 8690,
      "requested": 8691,
      "Type": 8692,
      "Calvert": 8693,
      "Russia": 8694,
      "severely": 8695,
      "Hawaiian": 8696,
      "corner": 8697,
      "crops": 8698,
      "texts": 8699,
      "scheme": 8700,
      "false": 8701,
      "circumstances": 8702,
      "Activision": 8703,
      "exhaust": 8704,
      "05": 8705,
      "Dig": 8706,
      "Event": 8707,
      "Hop": 8708,
      "MO": 8709,
      "Next": 8710,
      "Pier": 8711,
      "Sel": 8712,
      "Vin": 8713,
      "Vari": 8714,
      "citing": 8715,
      "categ": 8716,
      "category": 8717,
      "pus": 8718,
      "vul": 8719,
      "wings": 8720,
      "inals": 8721,
      "ancy": 8722,
      "bearing": 8723,
      "unlike": 8724,
      "convention": 8725,
      "rivers": 8726,
      "ribute": 8727,
      "ulu": 8728,
      "apse": 8729,
      "1926": 8730,
      "nee": 8731,
      "dipl": 8732,
      "lob": 8733,
      "spur": 8734,
      "coin": 8735,
      "shipping": 8736,
      "anyon": 8737,
      "annually": 8738,
      "knock": 8739,
      "Deep": 8740,
      "continental": 8741,
      "covers": 8742,
      "Gray": 8743,
      "iously": 8744,
      "Canal": 8745,
      "factors": 8746,
      "collect": 8747,
      "Peters": 8748,
      "1905": 8749,
      "radiation": 8750,
      "survive": 8751,
      "materials": 8752,
      "argues": 8753,
      "Schum": 8754,
      "reveals": 8755,
      "Furious": 8756,
      "tournaments": 8757,
      "distinctive": 8758,
      "schedule": 8759,
      "Hawaii": 8760,
      "Liberal": 8761,
      "phenomen": 8762,
      "Giants": 8763,
      "bulk": 8764,
      "chairman": 8765,
      "Skye": 8766,
      "WASP": 8767,
      "descend": 8768,
      "fixed": 8769,
      "lauea": 8770,
      "Alfred": 8771,
      "Iraq": 8772,
      "Kīlauea": 8773,
      "Fron": 8774,
      "Glor": 8775,
      "IA": 8776,
      "Lind": 8777,
      "MV": 8778,
      "Rif": 8779,
      "ST": 8780,
      "Sax": 8781,
      "dney": 8782,
      "gers": 8783,
      "mates": 8784,
      "rh": 8785,
      "raven": 8786,
      "swe": 8787,
      "tap": 8788,
      "tale": 8789,
      "tub": 8790,
      "zi": 8791,
      "itter": 8792,
      "leton": 8793,
      "root": 8794,
      "accompany": 8795,
      "ilst": 8796,
      "resign": 8797,
      "diver": 8798,
      "emor": 8799,
      "emies": 8800,
      "mental": 8801,
      "aux": 8802,
      "Ancient": 8803,
      "enses": 8804,
      "1940s": 8805,
      "originated": 8806,
      "northward": 8807,
      "casting": 8808,
      "explains": 8809,
      "personality": 8810,
      "criticised": 8811,
      "looks": 8812,
      "squad": 8813,
      "Ministry": 8814,
      "Strand": 8815,
      "Queens": 8816,
      "Richardson": 8817,
      "frequent": 8818,
      "heroes": 8819,
      "duty": 8820,
      "Clarkson": 8821,
      "conservation": 8822,
      "Natural": 8823,
      "arrested": 8824,
      "removal": 8825,
      "rhythm": 8826,
      "ropolitan": 8827,
      "Somalia": 8828,
      "Territory": 8829,
      "Netherlands": 8830,
      "deemed": 8831,
      "Yankovic": 8832,
      "Dog": 8833,
      "Gam": 8834,
      "Hg": 8835,
      "Jif": 8836,
      "Niel": 8837,
      "Naval": 8838,
      "Por": 8839,
      "Ren": 8840,
      "Rain": 8841,
      "Sab": 8842,
      "Such": 8843,
      "cars": 8844,
      "rator": 8845,
      "vals": 8846,
      "thet": 8847,
      "encing": 8848,
      "icit": 8849,
      "leuk": 8850,
      "hearing": 8851,
      "adi": 8852,
      "omes": 8853,
      "idae": 8854,
      "resigned": 8855,
      "1925": 8856,
      "sher": 8857,
      "shut": 8858,
      "exit": 8859,
      "exposure": 8860,
      "amps": 8861,
      "Real": 8862,
      "releases": 8863,
      "followers": 8864,
      "Dean": 8865,
      "useful": 8866,
      "disturb": 8867,
      "chell": 8868,
      "extent": 8869,
      "Christopher": 8870,
      "explain": 8871,
      "dense": 8872,
      "Coach": 8873,
      "Geoff": 8874,
      "Prov": 8875,
      "factor": 8876,
      "21st": 8877,
      "directors": 8878,
      "authorized": 8879,
      "communication": 8880,
      "borne": 8881,
      "scriptions": 8882,
      "Crus": 8883,
      "researchers": 8884,
      "shifts": 8885,
      "presidential": 8886,
      "nationally": 8887,
      "happened": 8888,
      "keeping": 8889,
      "credit": 8890,
      "temperatures": 8891,
      "departure": 8892,
      "suitable": 8893,
      "steps": 8894,
      "throwing": 8895,
      "models": 8896,
      "Justice": 8897,
      "Observ": 8898,
      "Somali": 8899,
      "Gibbons": 8900,
      "substantial": 8901,
      "embarked": 8902,
      "siege": 8903,
      "survivors": 8904,
      "Profess": 8905,
      "07": 8906,
      "Joy": 8907,
      "Mack": 8908,
      "Our": 8909,
      "Roc": 8910,
      "Sor": 8911,
      "Wild": 8912,
      "bol": 8913,
      "hind": 8914,
      "tario": 8915,
      "vast": 8916,
      "remarked": 8917,
      "rebels": 8918,
      "oll": 8919,
      "imperial": 8920,
      "cel": 8921,
      "withdrew": 8922,
      "rip": 8923,
      "moon": 8924,
      "moor": 8925,
      "clust": 8926,
      "ishment": 8927,
      "earning": 8928,
      "avian": 8929,
      "overseas": 8930,
      "notice": 8931,
      "intent": 8932,
      "adequ": 8933,
      "ensions": 8934,
      "interaction": 8935,
      "anyone": 8936,
      "commemor": 8937,
      "productions": 8938,
      "Ontario": 8939,
      "Ship": 8940,
      "Shakes": 8941,
      "ologies": 8942,
      "designer": 8943,
      "aho": 8944,
      "musician": 8945,
      "fundam": 8946,
      "skills": 8947,
      "Wilde": 8948,
      "Wilson": 8949,
      "starring": 8950,
      "trading": 8951,
      "voiced": 8952,
      "1906": 8953,
      "bases": 8954,
      "tours": 8955,
      "altered": 8956,
      "Soon": 8957,
      "stationed": 8958,
      "boundary": 8959,
      "indicating": 8960,
      "architectural": 8961,
      "Cathedral": 8962,
      "biggest": 8963,
      "Lords": 8964,
      "qualified": 8965,
      "Historic": 8966,
      "struggle": 8967,
      "rugby": 8968,
      "resolution": 8969,
      "alleged": 8970,
      "Girls": 8971,
      "encountered": 8972,
      "appropriate": 8973,
      "Graham": 8974,
      "doctrine": 8975,
      "acknowled": 8976,
      "Corporation": 8977,
      "Mozamb": 8978,
      "overwhel": 8979,
      "Shakespe": 8980,
      "AC": 8981,
      "Bureau": 8982,
      "Gate": 8983,
      "Know": 8984,
      "Nic": 8985,
      "bind": 8986,
      "eign": 8987,
      "easy": 8988,
      "fil": 8989,
      "sad": 8990,
      "tanks": 8991,
      "votes": 8992,
      "inian": 8993,
      "ingale": 8994,
      "icul": 8995,
      "icop": 8996,
      "wasn": 8997,
      "imet": 8998,
      "impossible": 8999,
      "confin": 9000,
      "erected": 9001,
      "etts": 9002,
      "artistic": 9003,
      "overeign": 9004,
      "spending": 9005,
      "kees": 9006,
      "disaster": 9007,
      "ranges": 9008,
      "coinc": 9009,
      "cancer": 9010,
      "relations": 9011,
      "coverage": 9012,
      "fund": 9013,
      "Manch": 9014,
      "fallen": 9015,
      "frig": 9016,
      "programme": 9017,
      "1890": 9018,
      "swim": 9019,
      "engineer": 9020,
      "Trib": 9021,
      "amounts": 9022,
      "balance": 9023,
      "Miller": 9024,
      "iliar": 9025,
      "intensified": 9026,
      "Israeli": 9027,
      "improvements": 9028,
      "ultimate": 9029,
      "Louisiana": 9030,
      "Paralympics": 9031,
      "Bono": 9032,
      "dominant": 9033,
      "elsewhere": 9034,
      "Rhodes": 9035,
      "adventure": 9036,
      "sculpture": 9037,
      "Groza": 9038,
      "answer": 9039,
      "Biblical": 9040,
      "deployed": 9041,
      "Athletic": 9042,
      "citizens": 9043,
      "reflected": 9044,
      "doubt": 9045,
      "Education": 9046,
      "Saturday": 9047,
      "Jifna": 9048,
      "Shakespeare": 9049,
      "73": 9050,
      "Blo": 9051,
      "Curt": 9052,
      "Dief": 9053,
      "Eric": 9054,
      "Eagle": 9055,
      "Fi": 9056,
      "Ful": 9057,
      "Kal": 9058,
      "Lost": 9059,
      "Mes": 9060,
      "Raj": 9061,
      "Wim": 9062,
      "cuss": 9063,
      "dangerous": 9064,
      "festival": 9065,
      "mature": 9066,
      "patch": 9067,
      "sung": 9068,
      "sisters": 9069,
      "inHg": 9070,
      "enthus": 9071,
      "orph": 9072,
      "stick": 9073,
      "amaz": 9074,
      "constitution": 9075,
      "otal": 9076,
      "eless": 9077,
      "option": 9078,
      "plas": 9079,
      "shorter": 9080,
      "diet": 9081,
      "exposed": 9082,
      "aku": 9083,
      "illness": 9084,
      "earn": 9085,
      "ights": 9086,
      "worn": 9087,
      "lling": 9088,
      "brain": 9089,
      "pressing": 9090,
      "ranging": 9091,
      "Anna": 9092,
      "colum": 9093,
      "Asian": 9094,
      "170": 9095,
      "surge": 9096,
      "mixture": 9097,
      "Gerard": 9098,
      "lights": 9099,
      "gets": 9100,
      "Princess": 9101,
      "childhood": 9102,
      "Sydney": 9103,
      "circle": 9104,
      "difficulties": 9105,
      "percentage": 9106,
      "devast": 9107,
      "Legacy": 9108,
      "smooth": 9109,
      "dogs": 9110,
      "benefit": 9111,
      "prompted": 9112,
      "passengers": 9113,
      "infrastru": 9114,
      "Jacob": 9115,
      "enbaker": 9116,
      "fossil": 9117,
      "Diefenbaker": 9118,
      "Ach": 9119,
      "Brist": 9120,
      "Fut": 9121,
      "Federal": 9122,
      "Hur": 9123,
      "Hamp": 9124,
      "Last": 9125,
      "Lower": 9126,
      "NE": 9127,
      "Oscar": 9128,
      "Ple": 9129,
      "Wi": 9130,
      "ez": 9131,
      "sop": 9132,
      "stall": 9133,
      "ithic": 9134,
      "rib": 9135,
      "comments": 9136,
      "shield": 9137,
      "akers": 9138,
      "lder": 9139,
      "antle": 9140,
      "ears": 9141,
      "1850": 9142,
      "meters": 9143,
      "guil": 9144,
      "Until": 9145,
      "raising": 9146,
      "Alb": 9147,
      "visiting": 9148,
      "elections": 9149,
      "charity": 9150,
      "choir": 9151,
      "Marsh": 9152,
      "breed": 9153,
      "ibi": 9154,
      "organised": 9155,
      "Stewart": 9156,
      "formerly": 9157,
      "Barry": 9158,
      "Parker": 9159,
      "barr": 9160,
      "Atlanta": 9161,
      "predators": 9162,
      "pairs": 9163,
      "Magg": 9164,
      "mistry": 9165,
      "Outstanding": 9166,
      "propag": 9167,
      "demonstrated": 9168,
      "patterns": 9169,
      "europium": 9170,
      "Children": 9171,
      "Formula": 9172,
      "neutral": 9173,
      "fatal": 9174,
      "negotiations": 9175,
      "Albums": 9176,
      "dramatic": 9177,
      "Banai": 9178,
      "Fraser": 9179,
      "Ohio": 9180,
      "criminal": 9181,
      "eliminated": 9182,
      "Lennon": 9183,
      "diplom": 9184,
      "Benn": 9185,
      "Es": 9186,
      "Fall": 9187,
      "Iowa": 9188,
      "Las": 9189,
      "Waxy": 9190,
      "bare": 9191,
      "barri": 9192,
      "lad": 9193,
      "uge": 9194,
      "vy": 9195,
      "ware": 9196,
      "inor": 9197,
      "rebuilt": 9198,
      "oral": 9199,
      "alpha": 9200,
      "oms": 9201,
      "bears": 9202,
      "ride": 9203,
      "sho": 9204,
      "aki": 9205,
      "pray": 9206,
      "scr": 9207,
      "Heaven": 9208,
      "attained": 9209,
      "muscar": 9210,
      "distant": 9211,
      "Marines": 9212,
      "familiar": 9213,
      "depicts": 9214,
      "skill": 9215,
      "considers": 9216,
      "variation": 9217,
      "Indians": 9218,
      "striking": 9219,
      "Barbar": 9220,
      "Edge": 9221,
      "delayed": 9222,
      "consistent": 9223,
      "goddess": 9224,
      "costs": 9225,
      "Rocky": 9226,
      "install": 9227,
      "Belg": 9228,
      "poorly": 9229,
      "violent": 9230,
      "bombs": 9231,
      "girls": 9232,
      "bledon": 9233,
      "Janeiro": 9234,
      "shells": 9235,
      "restricted": 9236,
      "throne": 9237,
      "lbw": 9238,
      "Original": 9239,
      "Gilbert": 9240,
      "Murray": 9241,
      "Korean": 9242,
      "Palestine": 9243,
      "Stanley": 9244,
      "Voyager": 9245,
      "perspective": 9246,
      "Happy": 9247,
      "concerts": 9248,
      "Glorious": 9249,
      "Bath": 9250,
      "Fem": 9251,
      "Goffman": 9252,
      "Sl": 9253,
      "Tar": 9254,
      "Tam": 9255,
      "Vic": 9256,
      "mam": 9257,
      "rants": 9258,
      "wore": 9259,
      "ívar": 9260,
      "inder": 9261,
      "theater": 9262,
      "essee": 9263,
      "itia": 9264,
      "lete": 9265,
      "imal": 9266,
      "imprison": 9267,
      "tern": 9268,
      "unes": 9269,
      "consc": 9270,
      "resent": 9271,
      "ressing": 9272,
      "1923": 9273,
      "eton": 9274,
      "opponent": 9275,
      "shares": 9276,
      "Inc": 9277,
      "truck": 9278,
      "divers": 9279,
      "Hearts": 9280,
      "disput": 9281,
      "prev": 9282,
      "consol": 9283,
      "arrive": 9284,
      "cris": 9285,
      "helmet": 9286,
      "westward": 9287,
      "warf": 9288,
      "Season": 9289,
      "metric": 9290,
      "Colomb": 9291,
      "realized": 9292,
      "advice": 9293,
      "Gener": 9294,
      "closest": 9295,
      "delay": 9296,
      "experiences": 9297,
      "municipal": 9298,
      "apsed": 9299,
      "riding": 9300,
      "wheel": 9301,
      "shifted": 9302,
      "flows": 9303,
      "Lawton": 9304,
      "favorable": 9305,
      "Howe": 9306,
      "badly": 9307,
      "functional": 9308,
      "grandfather": 9309,
      "closure": 9310,
      "Tennessee": 9311,
      "Bolívar": 9312,
      "Return": 9313,
      "initiative": 9314,
      "Burns": 9315,
      "Girl": 9316,
      "Originally": 9317,
      "Hungarian": 9318,
      "publisher": 9319,
      "battleships": 9320,
      "Kilmer": 9321,
      "Release": 9322,
      "Saprang": 9323,
      "Eventually": 9324,
      "Wimbledon": 9325,
      "78": 9326,
      "Bark": 9327,
      "Bah": 9328,
      "Branch": 9329,
      "Cab": 9330,
      "DH": 9331,
      "Ku": 9332,
      "Owen": 9333,
      "Rug": 9334,
      "Vice": 9335,
      "Women": 9336,
      "banned": 9337,
      "kān": 9338,
      "pum": 9339,
      "pale": 9340,
      "pages": 9341,
      "instru": 9342,
      "erog": 9343,
      "tot": 9344,
      "het": 9345,
      "amid": 9346,
      "bee": 9347,
      "chain": 9348,
      "degre": 9349,
      "1924": 9350,
      "Ing": 9351,
      "pox": 9352,
      "artificial": 9353,
      "illes": 9354,
      "feathers": 9355,
      "iveness": 9356,
      "assists": 9357,
      "Stand": 9358,
      "spend": 9359,
      "veloc": 9360,
      "airline": 9361,
      "flown": 9362,
      "angel": 9363,
      "retro": 9364,
      "cki": 9365,
      "founder": 9366,
      "engage": 9367,
      "succeed": 9368,
      "tribute": 9369,
      "Manhatt": 9370,
      "counties": 9371,
      "prize": 9372,
      "Cook": 9373,
      "Web": 9374,
      "testing": 9375,
      "profile": 9376,
      "friendly": 9377,
      "moderate": 9378,
      "clearly": 9379,
      "representative": 9380,
      "Minor": 9381,
      "burned": 9382,
      "respective": 9383,
      "objective": 9384,
      "Josh": 9385,
      "Prize": 9386,
      "housing": 9387,
      "celebrated": 9388,
      "Burke": 9389,
      "investigation": 9390,
      "translated": 9391,
      "collaboration": 9392,
      "Austria": 9393,
      "reinforcements": 9394,
      "Initially": 9395,
      "Stefani": 9396,
      "batsman": 9397,
      "Nielsen": 9398,
      "Bristol": 9399,
      "degrees": 9400,
      "Again": 9401,
      "Baker": 9402,
      "ED": 9403,
      "Hud": 9404,
      "Kam": 9405,
      "Lith": 9406,
      "MC": 9407,
      "Pam": 9408,
      "Prom": 9409,
      "Rest": 9410,
      "Rev": 9411,
      "Rick": 9412,
      "Stop": 9413,
      "Trail": 9414,
      "bones": 9415,
      "saves": 9416,
      "saved": 9417,
      "uit": 9418,
      "eries": 9419,
      "rell": 9420,
      "remove": 9421,
      "reconstruction": 9422,
      "revised": 9423,
      "atop": 9424,
      "enemies": 9425,
      "icity": 9426,
      "acles": 9427,
      "veter": 9428,
      "ternal": 9429,
      "uncertain": 9430,
      "proportion": 9431,
      "feels": 9432,
      "acked": 9433,
      "assador": 9434,
      "boil": 9435,
      "ported": 9436,
      "desert": 9437,
      "prep": 9438,
      "mines": 9439,
      "retreat": 9440,
      "consin": 9441,
      "warning": 9442,
      "labe": 9443,
      "Brun": 9444,
      "Grade": 9445,
      "continuous": 9446,
      "gery": 9447,
      "starling": 9448,
      "Allen": 9449,
      "advoc": 9450,
      "oxide": 9451,
      "Harris": 9452,
      "ometric": 9453,
      "traveling": 9454,
      "fifty": 9455,
      "fifteen": 9456,
      "audiences": 9457,
      "professor": 9458,
      "engineers": 9459,
      "atinum": 9460,
      "Toronto": 9461,
      "Business": 9462,
      "Offic": 9463,
      "spores": 9464,
      "pretty": 9465,
      "FIA": 9466,
      "junior": 9467,
      "sacrif": 9468,
      "Railroad": 9469,
      "premiere": 9470,
      "Mahesh": 9471,
      "Simpson": 9472,
      "Village": 9473,
      "hydrogen": 9474,
      "Planet": 9475,
      "convection": 9476,
      "Yankees": 9477,
      "Wisconsin": 9478,
      "teorological": 9479,
      "hidden": 9480,
      "Fernand": 9481,
      "Rugby": 9482,
      "Manhattan": 9483,
      "Abr": 9484,
      "Amb": 9485,
      "Cob": 9486,
      "Komb": 9487,
      "MI": 9488,
      "Pic": 9489,
      "Son": 9490,
      "Titus": 9491,
      "Usta": 9492,
      "Wright": 9493,
      "lined": 9494,
      "nant": 9495,
      "oing": 9496,
      "slip": 9497,
      "ths": 9498,
      "inations": 9499,
      "inci": 9500,
      "assembly": 9501,
      "esp": 9502,
      "ader": 9503,
      "oming": 9504,
      "conversion": 9505,
      "convict": 9506,
      "usage": 9507,
      "elig": 9508,
      "elder": 9509,
      "ulates": 9510,
      "suicide": 9511,
      "shock": 9512,
      "avo": 9513,
      "twin": 9514,
      "grid": 9515,
      "upgraded": 9516,
      "centers": 9517,
      "Aniston": 9518,
      "obvious": 9519,
      "elevation": 9520,
      "thereafter": 9521,
      "Norwe": 9522,
      "Works": 9523,
      "memor": 9524,
      "Seattle": 9525,
      "asking": 9526,
      "reaches": 9527,
      "handled": 9528,
      "kills": 9529,
      "limits": 9530,
      "Edition": 9531,
      "everyone": 9532,
      "scribed": 9533,
      "victories": 9534,
      "switch": 9535,
      "Berlin": 9536,
      "munition": 9537,
      "culmin": 9538,
      "burning": 9539,
      "Christianity": 9540,
      "ugal": 9541,
      "Keamy": 9542,
      "Browns": 9543,
      "thinking": 9544,
      "holiday": 9545,
      "Flag": 9546,
      "preparation": 9547,
      "pike": 9548,
      "carries": 9549,
      "opportunities": 9550,
      "weapon": 9551,
      "dispute": 9552,
      "thews": 9553,
      "accurate": 9554,
      "Conservation": 9555,
      "Robinson": 9556,
      "Schumacher": 9557,
      "Front": 9558,
      "columns": 9559,
      "infrastructure": 9560,
      "guilty": 9561,
      "Kombat": 9562,
      "Ustaš": 9563,
      "Az": 9564,
      "Cu": 9565,
      "FL": 9566,
      "Free": 9567,
      "Ian": 9568,
      "Let": 9569,
      "Lev": 9570,
      "Much": 9571,
      "flies": 9572,
      "gates": 9573,
      "hen": 9574,
      "iest": 9575,
      "iated": 9576,
      "pione": 9577,
      "sang": 9578,
      "warri": 9579,
      "thosaurus": 9580,
      "inhab": 9581,
      "aria": 9582,
      "toured": 9583,
      "itted": 9584,
      "icia": 9585,
      "owie": 9586,
      "terbury": 9587,
      "aph": 9588,
      "pez": 9589,
      "afted": 9590,
      "herd": 9591,
      "loved": 9592,
      "loose": 9593,
      "blow": 9594,
      "highways": 9595,
      "doctor": 9596,
      "decides": 9597,
      "14th": 9598,
      "simpl": 9599,
      "carved": 9600,
      "considering": 9601,
      "Mega": 9602,
      "Canterbury": 9603,
      "personally": 9604,
      "similarly": 9605,
      "mbar": 9606,
      "Police": 9607,
      "oxy": 9608,
      "1907": 9609,
      "streak": 9610,
      "networks": 9611,
      "mountains": 9612,
      "Phillies": 9613,
      "slop": 9614,
      "honour": 9615,
      "cules": 9616,
      "Township": 9617,
      "crews": 9618,
      "Switzer": 9619,
      "conduct": 9620,
      "establishing": 9621,
      "executed": 9622,
      "walking": 9623,
      "nominations": 9624,
      "northeastern": 9625,
      "expert": 9626,
      "Victorian": 9627,
      "watershed": 9628,
      "Trust": 9629,
      "vehicle": 9630,
      "ethnic": 9631,
      "restoration": 9632,
      "seeking": 9633,
      "Gardner": 9634,
      "Swedish": 9635,
      "Jurchen": 9636,
      "Cambodia": 9637,
      "predecessor": 9638,
      "theatrical": 9639,
      "Idaho": 9640,
      "Marlborough": 9641,
      "Corythosaurus": 9642,
      "precipitation": 9643,
      "Plunketts": 9644,
      "Curtis": 9645,
      "Maggie": 9646,
      "08": 9647,
      "113": 9648,
      "Ah": 9649,
      "Actor": 9650,
      "Bass": 9651,
      "Dum": 9652,
      "Fat": 9653,
      "Fanny": 9654,
      "Hoy": 9655,
      "Herald": 9656,
      "Ky": 9657,
      "Mint": 9658,
      "Nav": 9659,
      "Oak": 9660,
      "Pir": 9661,
      "Tak": 9662,
      "Tok": 9663,
      "ien": 9664,
      "oke": 9665,
      "rational": 9666,
      "ske": 9667,
      "vig": 9668,
      "ym": 9669,
      "infected": 9670,
      "ampl": 9671,
      "ammunition": 9672,
      "chamber": 9673,
      "deer": 9674,
      "olay": 9675,
      "ira": 9676,
      "terror": 9677,
      "universe": 9678,
      "peaking": 9679,
      "artwork": 9680,
      "outing": 9681,
      "avia": 9682,
      "strict": 9683,
      "scope": 9684,
      "brush": 9685,
      "deser": 9686,
      "ellite": 9687,
[...]
